র </w>
ে </w>
য ়
; </w>
্ র
া </w>
্ য
ে র</w>
ন </w>
ি </w>
। </w>
া র
, </w>
ব ি
ন ্
া র</w>
র ্
প ্র
স ্
ত </w>
ক র
ি ক
া ল
য় </w>
ী </w>
া ন
- </w>
ব া
ক ্
ত ি
ল </w>
া ম
ট ি</w>
ও </w>
ি য়
ত ্
ং </w>
র া
ক </w>
ম া
্য </w>
এ ব
্য া
এব ং</w>
ই </w>
' '
. </w>
িক </w>
স া
ি ল
দ ে
ষ ্
প র
ক ে</w>
দ ্
হ য়
ে ন
1 9
ল া
ে ছ
ম </w>
ন ি
ত ে</w>
ে ।</w>
ার ্
ত া
এ ক
স ম
প া
ভ া
ড ়
ণ </w>
্র ে
ি ত</w>
ক া
স ং
ট </w>
) </w>
ক্ ষ
স </w>
জ ন
বি ষ
ব ে
ব </w>
ু </w>
া ন</w>
বিষ য়
শ </w>
শ ্রে
ণ ী</w>
ী য়</w>
ু র
ে ল
স্ থ
হ ি
ব ে</w>
অ ন
শ্রে ণী</w>
বিষয় শ্রেণী</w>
ত ্র
হ া
ত ি</w>
স ে
্ চ
ত ার</w>
ক ি
দ ের</w>
ো </w>
স াল
েন ।</w>
দ </w>
ন া
ু ল
2 0
ল ে
এক টি</w>
ট ি
ঙ ্
গ ্র
ত া</w>
্ প
জ া
পর ি
ত্ র</w>
্ ব
থ ে
ক ার
হয় ।</w>
ও য়
ব ্য
উ প
জ </w>
ধ ্য
এ ই</w>
ভ ি
ন ি</w>
কর া</w>
বি শ
ন্ দ
'' </w>
দ্ ধ
প্র া
ব র্
ঙ্ গ
থে কে</w>
বা ং
ো গ
ন া</w>
ন ের</w>
য ু
য া
ম ি
ক ো
ন াম
দে শ
ে ন</w>
স ি
( </w>
ম ু
দ ি
কর ে</w>
ল ি
0 </w>
ম ান
ষ্ ট
ক ্র
চ ি
ন্ ত
ন িয়
শ া
ন ে
ল ে</w>
তি নি</w>
ষ্ ঠ
এ র</w>
ম ে
েছ িল
ড </w>
ূ র্
রা জ
ক ার</w>
ু র</w>
ী র</w>
ব া</w>
বি দ
ে ,</w>
্য াল
ব ্
প্র তি
1 </w>
য োগ
ম ধ্য
গ ুল
স্ ট
জ েল
থ া
ত ীয়</w>
সাল ে</w>
জন ্য</w>
ভ ার
বাং লা
অ ব
ক ে
ক ৃ
র ে
অন ু
াল </w>
প ্
নি র্
জ ্
ল া</w>
স র
ব্য ব
ছ িল
প ূর্
জ ন</w>
2 </w>
ন ে</w>
ার া</w>
1 8
ি ল</w>
ত ্য
দ া
দ ু
ই উ
5 </w>
কর ে।</w>
কর েন।</w>
ত্ ত
বর্ ত
েছ ে।</w>
প ুর
মধ্য ে</w>
চ ্চ
স ু
র ে</w>
জ্ ঞ
্র ি
র ো
- -</w>
থ ে</w>
ে ম
হ </w>
স্ ত
য় ।</w>
ষ </w>
মা ন</w>
4 </w>
্র া
সং খ
প্র থ
ঞ ্চ
াম </w>
ক া</w>
প </w>
জ ে
ান ে</w>
6 </w>
3 </w>
জ ি
শ ি
িয় া</w>
া য়</w>
ম ো
িক ্
বিশ ্ব
' </w>
র ি
য় ে</w>
ক র্
ত িক</w>
ধ ার
র া</w>
এ </w>
প ার
ভা ষ
গ </w>
অ র্
ম ার্
যু ক্
7 </w>
িয় ে</w>
সা থে</w>
লে খ
ড ি
ম ে</w>
হ য়</w>
ন্ ত</w>
বিদ ্যাল
য া</w>
ভ ূ
রা ষ্ট
20 0
র য়
থ </w>
ভা বে</w>
প্রথ ম</w>
ঞ ্
সম ্
দ্ ব
ত ।</w>
গ ো
ছ া
সাল ের</w>
হি সে
ক ু
র ের</w>
স াম
ান ের</w>
বাংলা দেশ
ি র</w>
ল ো
ব ল
সংখ ্য
ন্ ড
গ া
ব ্যা
য় ের</w>
ন ী
অন ্য
8 </w>
প র</w>
জ ী
অ ভি
ন্ ধ
; !
ব্ দ
হিসে বে</w>
ল ্
ন্ ন</w>
িক্ ষ
জেল া</w>
ব্যব হ
ী ন</w>
চ ে
য় ে
ম ৃ
অব স্থ
ত ের</w>
শ ে
প ি
9 </w>
শ িক্ষ
প ু
ন্ ত্র
য় া
আ র
েছ ে</w>
স্ বা
ক াল
দে শ</w>
এ টি</w>
স ূ
স ে</w>
সম ্প
তি র</w>
প্রতি ষ্ঠ
স ের</w>
উ ত্ত
য ে</w>
স দ
ব ছ
ব ৃ
শ হ
িক ে</w>
চ ল
20 1
ত ু
পা দ
বি জ্ঞ
হয় ে</w>
প ে
দে খ
য ে
প্র ধ
অ ধ
ন ।</w>
ওয় া</w>
র ু
যু দ্ধ
19 7
ক ের</w>
প ুর</w>
ছ িল</w>
ক ল
চি ত্র</w>
য় ী</w>
- -
'' '</w>
ড় </w>
ন িক</w>
শ ন</w>
ব ো
19 9
রাষ্ট ্র
কর তে</w>
শ ্চ
জী ব
ত্ ব</w>
চ াল
কর েছিল
নাম </w>
থা ক
্য ের</w>
ল ের</w>
তা দের</w>
ক্ষ ি
গ ণ
উ ৎ
পর ্য
ছ ে</w>
ং শ
ব ার</w>
শ ুর
স ঙ্গ
কি ছ
অ ঞ্চ
ধ র্
ণ ্
খ ানে</w>
যোগ </w>
মা ধ্য
কি ন</w>
প দ
শ িল
ই স
মার্ কিন</w>
ং শ</w>
19 8
স্থ া
জ ু
জেল ার</w>
ত্ ব
ভি ন্ন</w>
াম ্
ন ো
গ্র হ
ট ার</w>
গ ঠ
ম ূ
সর কার
ব ী
কর ার</w>
া ই
ার ের</w>
েন ,</w>
সম য়</w>
ড় া</w>
টি র</w>
আ ই
শা স
ত ৃ
ক্ ত</w>
এ ক</w>
;! --
ত থ
ণ ে</w>
চ ্
ার ি
ো র</w>
ই ং
অন ে
দ ক্ষি
নিয় ে</w>
জ ন্
তি হা
ন দ
দ্ র</w>
ন্ ট
প্র কা
বা দ
ন্দ ্র
ণ ের</w>
শিল ্প
র ি</w>
স র্
িক া</w>
আ স
ক্ তি
শ্চ ি
ম হা
স ি</w>
ন্ত র্
খ ্রি
ন ,</w>
ব ু
ঘ ট
উ দ্
বে শ
ক লে
ভার তীয়</w>
অ ্যা
ক্ তি</w>
ত ম</w>
– </w>
উ চ্চ
প শ্চি
ান ্য</w>
বি ভিন্ন</w>
গ ু
ড় া
ন ্যা
জ ান
ভ </w>
শুর ু</w>
কিছ ু</w>
19 6
য় ,</w>
শ তা
প্রা য়</w>
সংখ্য া</w>
চ া
জে লা
খ ন</w>
বিদ্যাল য়</w>
বাংলাদেশ ের</w>
ব ন্ধ
িয় া
দ ি</w>
ার্ থ
ম ্প
প ৃ
আ গ
ম ্
ষ্ ট</w>
ব ি</w>
আ ল
খ া
রা জন
ত ী
ণ া</w>
িয় ার</w>
উ ল্
চ িত</w>
ার ি</w>
সা ধার
ফ </w>
প্রধ ান</w>
ম ি</w>
ে ল</w>
স ী
ম ত
ট া</w>
কর েন</w>
ব ৈ
খ </w>
হয় েছিল
হ ল</w>
ন ার</w>
ক্ষ ে
ফ ি
বি ভা
ব ্রি
ন ো</w>
) ,</w>
অন্য ান্য</w>
স ব
্ব র</w>
পুর স্
জ ের</w>
বছ র</w>
ত ৈ
হ ু
ন ী</w>
এক জন</w>
চ্চ ি
চল চ্চি
! </w>
বাং লা</w>
স মা
যা য়।</w>
জা তীয়</w>
ম হ
ন্ ড</w>
ম া</w>
ইস ল
ঢ া
ত ন</w>
দ্ব ারা</w>
স ার
ত াল
ব্যবহ ার</w>
নাম ে</w>
ো ল
19 5
ধ ী
ড় ে</w>
শ ী
19 4
পূর্ ব</w>
ম িক</w>
স ো
যুক্ ত
দি ন</w>
ে র
বা হ
চ ার
দ র্
আ র্
উ ন্
উল্ লেখ
রয় েছে।</w>
শ ু
িক ার</w>
গুল ি</w>
ইউ নিয়
জ ার</w>
ভ ু
পর্য ন্ত</w>
য় া</w>
র ূ
ত ্যা
স্থা প
হি সা
আ য়
মৃ ত্য
উ ই
ৎ </w>
দ্ বি
অর্ থ
ছিল ।</w>
ল ্যা
বা হি
ট ্র
খ ্যা
বিশ ্
য ার</w>
ড া
অনে ক</w>
ন্ত ু</w>
দ ্র
ই তিহা
চ </w>
ট ্
পুরস্ কার</w>
বাংলা দেশ</w>
গুল ো</w>
ইং রে
সা হি
স্ ট</w>
শ ্র
সং স্
সম্প র্
শতা ব্দ
কি ন্তু</w>
ন্ দ্র</w>
0 0</w>
গ ঞ্
্ র</w>
চে য়ে</w>
ত বে</w>
ট ো
ত্র ে</w>
ী ,</w>
প াল
গ্র াম
দ িয়ে</w>
বিশ ে
মাধ্য মে</w>
ফ ু
মান ু
গ ত</w>
দ িকে</w>
ত ারা</w>
স্থ ান
হয় েছে।</w>
সদ স
ব ্র
তা কে</w>
ওয় ার</w>
ী ।</w>
ব ার্
ন্ ট</w>
দ্ধ </w>
ধর্ ম
ান ী</w>
এ লা
য েম
ধ র
মে র
গ র
হ তে</w>
ুর ু
ান ি</w>
পরি চাল
বা ড়
পর ে</w>
ভার তের</w>
প ো
এ ম
াল ি</w>
ব্রি টি
'' '
ব লে</w>
দ ান</w>
ধ </w>
ট ে
ু য়
ফ ে
বা স
সূ ত্র</w>
ম িল
ট া
খ েল
ম ্যা
রয় েছে</w>
ড ে
কর েছ
হিসা বে</w>
িক া
গ ের</w>
ব স
ান ।</w>
বা ঙ
জ ার্
কর্ ম
প ার্
বে শ</w>
ৈ তিক</w>
গ্র াম</w>
স্ তা
সা ই
দ া</w>
কা জ</w>
নির্ বা
19 3
উপ র</w>
মূ ল
না ।</w>
ক ,</w>
ার া
স্ ব
প্রকা শ
গ্রহ ণ</w>
ছিল েন</w>
হ ল
চ্ ছ
আর ও</w>
ত ্য</w>
ণ্ ড
চ না</w>
তথ ্য
বা স</w>
তৈ রি</w>
ম ার</w>
ষ ের</w>
জন্ ম</w>
ম ন্ত্র
ান া</w>
উত্ত র</w>
কো ন</w>
বি দ</w>
ভাষ া</w>
ম ৌ
দেশ ের</w>
উচ্চ </w>
থ ি
ণ ি
দ ্য</w>
থাক ে।</w>
ম াল
বি জ
পর বর্ত
স্বা ধী
সরকার ি</w>
পূর্ ণ</w>
ঘ ো
দক্ষি ণ</w>
ব্রিটি শ</w>
কো নো</w>
উপ জেলা</w>
ী তে</w>
1 7
হ ার</w>
প্ ত</w>
জ ি</w>
্য ে</w>
প্রা চ
হ ন।</w>
স্বাধী ন
অভি নে
মো ট</w>
ক ি</w>
ক ।</w>
আ মের
আ র</w>
হয় ,</w>
গঞ্ জ</w>
ধ ু
ল ্প
বেশ ি</w>
নি উ
স েন
গ ুরু
রা খ
চি ত্র
যেম ন</w>
বাঙ ালি</w>
দ্বি তীয়</w>
চ ট্
ব ল</w>
বা দ</w>
ব ঙ্গ
পা কি
স হ
কর ণ</w>
তু ন</w>
ইসল াম
ব ের</w>
মু স
যুক্ ত</w>
খ্রি স্ট
হ ্
% </w>
লা ভ</w>
সব চেয়ে</w>
ব র
অনু যা
জ ্য
জ ে</w>
বি ধ
বিশ্ব বিদ্যাল
ৃ ত</w>
হয়েছিল ।</w>
তথ্য সূত্র</w>
মা ত্র</w>
ফ লে</w>
হ ো
বি ক</w>
স া</w>
কল কা
চলচ্চি ত্র</w>
ন তুন</w>
) .</w>
লা ই
িয় ে
বৃ হ
প্র তি</w>
উপ জেলা
মা ণ</w>
কে ন্দ্র
প ের</w>
ণ ত</w>
আ ব
প র্
স ব</w>
কলে জ</w>
শতাব্দ ীর</w>
বে ষ
ল ু
ব লা</w>
এ ছা
ম ্ব
ত ,</w>
য় ন</w>
ন িক
্য া</w>
সং যোগ</w>
অ ংশ
ণ া
শে ষ</w>
ব ন্দ
ট ের</w>
হ াম্
খ ু
ে ই</w>
রাষ্ট ্র</w>
অ ন্তর্
সঙ্গ ে</w>
্য ান
প ক্ষ
গ বেষ
শ ্
প তি</w>
ী ত</w>
ার ী</w>
র ক্ষ
স্থ া</w>
ভ ে
ল িক</w>
ব হি
গ র</w>
যা য়</w>
দেখ া</w>
দ ার</w>
হয় েছ
হ ে
প ৌ
ফ ো
যোগ ্য</w>
শ ে</w>
রাজন ী
মু খ
স ভ
ত ত্
ল ার</w>
ত ুল
যুদ্ধ </w>
ঢা কা</w>
দ শ
তা ঁ
কৃ ত</w>
ব হ
পা ওয়া</w>
ি ত।</w>
ছ ো
ট ী
াম্ ব</w>
বিজ্ঞ ান</w>
থ াম্ব</w>
াল ী</w>
ইউ রো
র িক</w>
স্থ ান</w>
জা তিক</w>
আ ন্তর্
ফু ট
টী কা</w>
ত িক
- এ</w>
হি ন্দ
চট্ ট
যে খানে</w>
এক া
দ্ব ী
য ো
ব ে।</w>
য় ার</w>
সাহি ত্য
সর্ ব
ছিল েন।</w>
চ ু
20 2
আ লো
র হ
আন্তর্ জাতিক</w>
সংখ্য ার</w>
19 2
ক্র ম
িয় ান</w>
অনুযা য়ী</w>
ৃ ষ্
না ট
দ ী
ত ো
সে ই</w>
ল ক্ষ
ছ ে।</w>
শ ো
িক ে
আ লা
'' ,</w>
অ ংশ</w>
সদস ্য</w>
প্র শাস
ভ ব
সা ং
উন্ ন
করেছিল েন।</w>
কার ণে</w>
স্ ক
বর্ ণ
মান ে</w>
ভাষ া
জ ো
খ্যা ত</w>
জন সংখ্যা</w>
স্বাধীন তা</w>
প্র ভা
সর কার</w>
ম দ</w>
বিশে ষ</w>
গ ে</w>
ান ,</w>
;! --</w>
ক য়ে
স্ট ে
ইউনিয় ন</w>
পার ে।</w>
রাজ ্যের</w>
তি তে</w>
কা ছে</w>
ব ীর</w>
স ক
প্র জা
ব ড়</w>
িক ান</w>
ষ্ঠ </w>
সম ূ
আ ন্দ
স্ প
অ ক্
চ ার</w>
প্র ে
ষ্ট া
তা য়</w>
সাধার ণ</w>
ঘো ষ
শ ত
ার ে</w>
র ,</w>
ফ া
ম ের</w>
1 0</w>
- এর</w>
িয় াম</w>
যুক্ত রাষ্ট্র
বহি ঃ
গ্র ন্
পুর ু
ার ,</w>
ান ো</w>
ইতিহা স</w>
ার ।</w>
ী দের</w>
ক থ
ফ ্র
শিক্ষ া</w>
20 </w>
েম ্বর</w>
গ ্রে
আ হ
স িক</w>
গুল ির</w>
ব র</w>
প্র য়
ঘ া
প ড়
আ ন
ভা গ</w>
বা য়
ফ রা
ত্ তি</w>
প্রতিষ্ঠ িত</w>
19 0
ক্ষে ত্রে</w>
হল ো</w>
গুরু ত্ব
ক্ষ ম
মৃত্য ু</w>
ু ন</w>
এ স
এ খানে</w>
ওয় া
অর্থ নী
বহিঃ সংযোগ</w>
ত ারি
নদ ী</w>
ধর নের</w>
কৃ তি</w>
কার ী</w>
ব্য ক্তি</w>
ব্য ক্তি
দর্ শ
ি য়</w>
্য ।</w>
স ার্
ুয় ারি</w>
মুস লি
ক বি
দু টি</w>
কর ে,</w>
োগ </w>
পদ ার্থ
র াম
ন্ স</w>
ব ্রা
হ র
ান া
( জ
আন্দ োল
ট ে</w>
র্ ঘ
বিজ য়ী</w>
স্ ত</w>
প্রা থ
না য়</w>
কাল ীন</w>
ক টি</w>
দ ূ
আ বি
ক ার্
দ ল</w>
ি তে</w>
দু ই</w>
মত ো</w>
ফ ্রা
ন ং</w>
্য াম
ক ্যা
1 5
বিশ্ব বিদ্যালয়</w>
কার ্য
মূ ল</w>
য খন</w>
কার ণ</w>
স ,</w>
ন্ ত্র</w>
ট ন</w>
ন ও</w>
জ া</w>
ম নে</w>
বা ই
1 6
রু দ্ধ
যুদ্ধ ের</w>
এ র
প ে</w>
মা দ
জীব ন</w>
গঠ ন</w>
ধ ্যা
বে ল</w>
ত খন</w>
অনু ষ্ঠ
পশ্চি ম</w>
ো য়া
বিভা গ</w>
বৃহ ত্ত
ব্যা প
আ ম
পু ন
রাজন ৈতিক</w>
র ী
ওয় ার্
বিশ্ব ের</w>
পৃ থি
লি খ
বর্ত মানে</w>
কর্ তৃ
ফ ল
চ ৌ
মা ই
প্রকা শ</w>
; ,</w>
বে শি
ওয় ে
রাজ ্য</w>
উপ জেলার</w>
প্রকাশ িত</w>
ক্র িকে
এ শ
স ৈ
িক ি
( মৃ
অ ব</w>
রাজনী তি
ম স
ঃ </w>
কাল ে</w>
পরি বর্ত
সাল </w>
ব্দ ে</w>
ব্যবহ ৃত</w>
প্ ট
সংখ ্যা
ক র</w>
পাকি স্ত
গুরুত্ব পূর্ণ</w>
অ ফ</w>
নির্বা চ
প্রধ ান
ব য়
ক িল
ধ ্য</w>
ক ম
খেল োয়া
প্র ো
কৃ তিক</w>
জ ল
অন্য তম</w>
জন সংখ্যার</w>
লেখ ক</w>
সে ন</w>
হয় েছে</w>
আ প
প্রাথ মিক</w>
1 0
ক্ স
জ ,</w>
ন ীর</w>
দি ও</w>
বৃ দ্ধ
ভু ক্ত</w>
ব ী</w>
উৎ পাদ
ম িত</w>
ধ া
কৃ ষ
পরি চি
আ ধু
মা ণ
প দ্ধ
ত্র ের</w>
দা য়
ক্ ট
ন টি</w>
ব ংশ
পা ঠ
ভ ো
হ লে</w>
শা হ
স হ</w>
ভার ত</w>
দু র্
্য ু
ো মি
দে ওয়া</w>
বি রুদ্ধ
ই ত্যা
ত ার
শ ব্
সদ র</w>
েল ি
বাহি নী</w>
চট্ট গ্রাম</w>
সম্ পাদ
ক ম</w>
িয় ন</w>
18 </w>
ভূ ত</w>
সাম রিক</w>
কা য়</w>
প্রাচ ীন</w>
উল্লেখ যোগ্য</w>
ম ত</w>
য দিও</w>
ইংরে জ</w>
মু ক্তি
ক ুর
খ্রি ষ্টা
ফরা সি</w>
গঠ িত</w>
ভূ ম
19 1
পার ে</w>
নি ।</w>
জন প্র
এক ই</w>
ভা ব
নি বন্ধ
ক মি
বিরুদ্ধ ে</w>
বি স্ত
খ ান</w>
উই কি
কে ন্দ্র</w>
ফ া</w>
মা ত্র
অর্ থ</w>
দ ৈ
উপ ন্যা
পূর্ বে</w>
ডি সে
বিশ্ববিদ্যাল য়ের</w>
গ ্
পি ড
প্ ত
সাধার ণত</w>
ড় ি</w>
19 </w>
জ াম
সম্ প্র
স িল
গুল োর</w>
ী ত
সমূ হ</w>
চ্ ছে</w>
রে খ
শহ রের</w>
অঞ্চ ল</w>
ট িকে</w>
অবস্থ িত।</w>
অন ্য</w>
ই ন
কথ া</w>
অনু সার
ক ৌ
18 9
া ন্ত</w>
রো ধ
বর্ত মান</w>
অবস্থ ান</w>
পাদ টীকা</w>
সা য়
উ পা
স ৃষ্
ড়া ও</w>
ব্যব স্থা</w>
ধ িক</w>
কর ত
কু ল</w>
ি ত
ভ ার্
মানু ষের</w>
পরি ষ
কল ্প
বে ক</w>
ম ্বর</w>
রাজ ধ
তা ,</w>
স্থান ীয়</w>
জ েন
পর ্যা
খ ে
ন ভ
্র ো
দ িয়
আবি ষ্
আধু নিক</w>
্য ার</w>
স্ বী
আয় তন</w>
সং স
হ লে
প্র দান</w>
হাম্ মদ</w>
৷ </w>
ে ও</w>
ত্ ম
) ।</w>
না ই
দেশ ে</w>
নো বেল</w>
সা ক্ষ
অবস্থ িত</w>
ত্র ী</w>
যুক্তরাষ্ট্র ের</w>
ক ম্প
ত র
বি ত</w>
কো ম্প
শহ র</w>
ভাষ ায়</w>
গ ি
কা ঠ
ত্র ি
ধ ্ব
তা ই</w>
সক ল</w>
ক বি</w>
এ প্র
ঘোষ ণা</w>
প ি</w>
বা জার</w>
মন্ত্র ী</w>
সম য়ে</w>
ল্যা ন্ড
স ফ
ছো ট</w>
ন্ দ</w>
পুরু ষ</w>
ছ </w>
;!-- বা
জন্ ম
বাদ ী</w>
পা ধ্যা
এম ন</w>
দ ার্
য ে,</w>
শ ্ব
তাঁ র</w>
হ ওয়ার</w>
ান িক</w>
র েল
জা তি
ি উ
অঞ্চ লে</w>
না থ</w>
ধর্ ম</w>
জার্ মান</w>
ফো র্
্যা প
চ ার্
িল ্
পরি চিত</w>
বি খ্যাত</w>
মুসলি ম</w>
সা বেক</w>
ষ ণ</w>
শ ব্দ
রাষ্ট্র পতি</w>
আ ফ্র
স্থাপ ন</w>
ফ েল
কিল োমি
সাম ্রা
ঁ চ
ন্ টি
বাংলাদেশ ী</w>
;!-- সং
শিল্প ী</w>
রা য়</w>
ক াল</w>
আগ ে</w>
ভাষ ার</w>
আ দ
আ ছে।</w>
ব াল
রাজ া</w>
স্ কুল</w>
স ুর
ধ রে</w>
দে য়।</w>
বাহি নীর</w>
সম্পর্ কে</w>
সে প্ট
সি ং
লা ই</w>
য দি</w>
বর্ত ী</w>
হয়েছ িল</w>
হ চ্ছে</w>
অ স্ট
শ া</w>
18 8
ূ ল
র্ থ</w>
হ ের</w>
ম র
ধ ীন</w>
্য ,</w>
তি ন</w>
পশ্চি ম
িক ভাবে</w>
হ ত</w>
র্ থ
ী ক্ষ
এ খ
ষ ে</w>
কম্প িউ
ঞ্ জ
ফে ব্র
ত্ ত্
পক্ষ ে</w>
মা ঝ
সভ া</w>
ুল ি
পে ক্ষ
প্ ল
দু ল</w>
1 2</w>
উল্লেখ </w>
চ ন্দ্র</w>
ত ু</w>
চ িকি
া ,</w>
অ ভ
অ অ
ধ ুর
ব স্ত
করেছিল ।</w>
প্রয় ো
শ ের</w>
ব ারের</w>
(জ .</w>
ক্ তির</w>
কৃ ষ্
ইংরে জি</w>
গ ান</w>
তারি খ</w>
সর্ বো
আমের িকান</w>
চৌ ধুর
বৃহত্ত ম</w>
চিকি ৎ
ল ি</w>
বা ণি
স্ টি
বি বে
জ মি
মস জি
পাল ন</w>
ন য়</w>
ত ন্ত্র</w>
সম্প ূর্
সেন া
রা ই
201 1</w>
ড় ি
তথ ্য</w>
শ ন
াল ো
ড েম
ম ধ্য</w>
ড ি</w>
চ র
প্রা ক্
অঞ্চ লের</w>
তি হ
অক্ টো
হ ন</w>
াল ি
ি ত্ব</w>
সা হা
নি ম্
উইকি পিড
শা খ
; ।</w>
মহ িল
স্থ ি
টি তে</w>
কর্তৃ ক</w>
ঠ া
তা ।</w>
থা কে</w>
উ </w>
ক াম
গ ল্প
দ ৃ
রূ প</w>
ম ন্দ
ল ী
প্র যুক্
দ ে</w>
মার্ চ</w>
ব হু
কর েন,</w>
ত ে
ইসল াম</w>
য ি
এ ন
1 5</w>
ফ ার
এছা ড়া</w>
কৌ শ
ম ন
ই তাল
মূল ত</w>
সং ঘ
ক্র ম</w>
পশ্চিম বঙ্গ
েছিল েন।</w>
ন ৈতিক</w>
হ ার
1 1</w>
নে তৃ
না ,</w>
ঐ তিহ
জার্ মান
ক্ লা
নির্ দি
গো ষ্ঠ
কর েছে।</w>
মানু ষ</w>
সাহি ত্য</w>
দার্ শ
প্রাক্ তন</w>
পর ীক্ষ
সি টি</w>
উ দ
ত্ ত</w>
ব ার
বিজ্ঞ ানী</w>
;!--বা এ
ঐ তিহা
ক খ
রাজধ ানী</w>
ব ্য</w>
ট েলি
জ ্য</w>
1 4
উ ঠ
ট ,</w>
প ান
1 )</w>
0 00</w>
সর্বো চ্চ
বি ভ
ব্যা ং
ই ন</w>
আ ছে</w>
নাম ক</w>
ট াই
সংস দ</w>
স ৌ
শি রো
যোগ া
নিয় ন্ত্র
কে ই</w>
আ ক্রম
ম নো
দে ন।</w>
2 )</w>
(মৃ .</w>
অ ঙ্গ
ী রা</w>
ক দের</w>
উত্ত র
প ত্র
রহ মান</w>
শিক্ষ া
গ ভ
স ভা
অন্তর্ ভুক্ত</w>
পূর্ ব
যুদ্ধ ে</w>
সৃষ্ টি</w>
শহ র
লা য়</w>
খেলোয়া ড়</w>
বৃদ্ধ ি</w>
প্রশাস নিক</w>
বছ রের</w>
বে ,</w>
প থ</w>
হ বে।</w>
দী র্ঘ
শ ৈ
ডিসে ম্বর</w>
যে তে</w>
ত্ব ের</w>
দ খ
নির্দি ষ্ট</w>
গ্র া
ষ্ট া</w>
স ন্
খু ব</w>
জ িক</w>
করেছ েন।</w>
দেখ ুন</w>
বিশ ি
স্তা ন</w>
অঞ্চ ল
শ ি</w>
3 0</w>
দর্ শন</w>
ন াল
ইউরো প
া ।</w>
রূ প
জু লাই</w>
ন ্য
ন গর</w>
এলা কা</w>
ব ই</w>
পৃথি বীর</w>
র বী
শে খ</w>
বিশে ষ
বি রোধ
য় ার
েছ ে,</w>
পরবর্ত ীতে</w>
ণ্ ড</w>
শিল্প </w>
ল ী</w>
ভ িয়ে
চ ে</w>
18 6
হা ই
আ বার</w>
পৌ র
েন ি
সঙ্গ ীত</w>
ক িত</w>
নদ ীর</w>
যি নি</w>
তত্ ত্ব</w>
অধ ি
হা য়
মাধ্য মিক</w>
সরকার ের</w>
সাহা য
সর্বোচ্চ </w>
দ ো
বাং লার</w>
ধর্ম ীয়</w>
অধ ী
ব স</w>
নি জে
তী য়
তি নটি</w>
উৎ প
বিশি ষ্ট</w>
বৈ শি
প্র স্তা
ম েল
উ পাদ
গ ড়ে</w>
ড় িয়ে</w>
শ ক্তি</w>
ধ ি</w>
বা জ
আই ন
বি প্ল
ফ্রা ন্
টি উ
লে ক
তৃ তীয়</w>
দ লের</w>
অ প
করেছিল েন</w>
18 7
ড ের</w>
কয়ে কটি</w>
সাম া
লেখ া</w>
গো ল</w>
ভূ মি</w>
শী ল</w>
প্রা প্ত</w>
পরিবর্ত ন</w>
চ ী
হিন্দ ু</w>
স ার</w>
সা ন</w>
সাল ে,</w>
সি দ্ধ
অ ্যাল
সূ র
বিজ্ঞ ান
েছিল ।</w>
বৈশি ষ্ট
অর্ থা
আগ স্ট</w>
ক ্য
নাম ের</w>
উ ভ
ত ৎ
পৃ ষ্ঠ
ক্ষম তা</w>
দ িক</w>
বি মান
ধার ণা</w>
গ ে
ক ন
গ ্যা
আন ু
ও ঠ
সে খানে</w>
ভা ই
জু ন</w>
শিক্ষ ার্থ
এ ই
াম া
অ থ
শহ ী
হা জার</w>
নির্বা চিত</w>
ণ ,</w>
দ িক
সী মা
কার ের</w>
গ ড়</w>
চি হ্
প ট
হ িত</w>
তাল িকা</w>
প্রভা ব</w>
ক ান
প ুলি
আলা প</w>
অর্ জন</w>
ব রা
হা ট</w>
েছিল েন</w>
গ ৃ
উদ্ দেশ
এছা ড়াও</w>
নাম করণ</w>
4 )</w>
চ লে</w>
চ রি
1 4</w>
য ৌ
তা প
ভ ৌ
সেপ্ট েম্বর</w>
সি ডে
; .</w>
সম ু
যা ত্র
বেশি র
বা ঁ
দ ল
নিউ </w>
চা ঁ
স ন</w>
কলকা তা</w>
ন্ত র
সম্পূর্ ণ</w>
ব ৌ
ি ন</w>
জনপ্র িয়</w>
1 3
ন ্য</w>
বিশ্ ব</w>
বি ল
ঙ্গ </w>
উ দা
প্র চ
পরবর্ত ী</w>
যোগ ি
বিদ ।</w>
নির্ ভ
নভ েম্বর</w>
দি বস</w>
ব ন</w>
প্র ক্র
, 000</w>
মি শ
দ ন</w>
শব্ দ</w>
সম য়
হ ত্য
আই ন</w>
ম ন</w>
দে ব
িক ায়</w>
ত ন্ত্র
ইউ নি
ক ী
ক্ স</w>
ি ,</w>
এ তে</w>
সম ালো
ো পাধ্যা
বা স্ত
ডি গ্র
প্রতিষ্ঠ ান</w>
পর িক
এ ম</w>
মা সে</w>
প্রে সিডে
উদা হর
থ ের</w>
জ ী</w>
হ াম
কু মার</w>
মো হাম্মদ</w>
প ঞ্চ
তি ,</w>
িয় ায়</w>
আল ী</w>
দায় িত্ব</w>
প্রতিষ্ঠ া</w>
ক ্যাল
পা ত</w>
এর পর</w>
গবেষ ণা</w>
3 )</w>
গৃ হ
অ্যা ন্ড</w>
খ ুল
ন য়।</w>
অক্টো বর</w>
পরিচি ত।</w>
বি মান</w>
সামা জিক</w>
নির্ মাণ</w>
ভূ মি
ঐতিহা সিক</w>
িয় াম
ভূম িকা</w>
ই য়
পরি ণত</w>
অথ বা</w>
জান ুয়ারি</w>
মাদ ্রা
মহিল া</w>
ত্ বে</w>
ম --</w>
পর্ ব
অ স্
ফেব্র ুয়ারি</w>
ন ার
হ বে</w>
প্রা য়
পু রা
অর্থনী তি</w>
ফ ল</w>
চে ষ্টা</w>
20 শ</w>
কম্পিউ টার</w>
নি র
প্র চল
ছ বি
পাকি স্তান</w>
ক্ ত
সম স
সম ্রা
অর্থ নৈতিক</w>
মা দের</w>
শ্রে ষ্ঠ</w>
সম স্ত</w>
গ্র হ</w>
মু ক্ত</w>
পরিক ল্প
জা হা
1 2
ঔ প
1 6</w>
গো ল
অ লি
সা গর</w>
ান ু
িয় াল</w>
ার েল</w>
র্ ক</w>
এপ্র িল</w>
স্থ ানে</w>
বর্ণ না</w>
প্রা ণ
রা য়
বাহ ী</w>
197 1</w>
অ ফি
শ্র ী
স্থান া
ফুট বল</w>
এ দের</w>
নে তার</w>
গুল ো
মা স</w>
বিভা গের</w>
শত কের</w>
ব ই
িয়া ,</w>
লো ক
ু ত</w>
ওয় ে</w>
সম র্থ
ড েল</w>
ক্ ষ্
ট ার।</w>
ফুট বল
ওয়ে ব
য ান</w>
্যাল </w>
ক্ষ </w>
ন ৌ
6 )</w>
ভ ব</w>
প ানি</w>
রা প
র তার</w>
সাই ট</w>
খ ালী</w>
যোগা যোগ</w>
নে ই
5 )</w>
বিশ্ বাস</w>
স র</w>
ঙ্ ক</w>
জ িল
উ নি
দার্শ নিক</w>
অধী নে</w>
হা স
নি জের</w>
অনুষ্ঠ িত</w>
রবী ন্দ্র
ত র</w>
স হায়
মৌ লিক</w>
'' .</w>
স ড়
খ্রিষ্টা ব্দে</w>
রা শ
টি ,</w>
ন ৃ
বাস ী</w>
1 7</w>
রাজনীতি বিদ</w>
েছ েন</w>
প্রা কৃতিক</w>
18 5
আ মি</w>
তৎ কালীন</w>
গ্র ী
ভার তে</w>
যা য়,</w>
উদ্ দিন</w>
স্বা স্থ
য ারা</w>
পে য়
ন্ ন
খ্রিস্ট া
প্রতিষ্ঠ ার</w>
পশ্চি মে</w>
ান ি
তিক ্র
ফ ্
এ স</w>
নাট ্য
শ্রে ণ
আ ট
জন ের</w>
র চ
বো ঝ
বিষয় ে</w>
েল ে</w>
ম্যা ন</w>
ধ ান</w>
জ্য ো
াম ী</w>
স্ক ুল
থে কেই</w>
ম য়
জ র্
বা ন</w>
স্ মৃ
প্রধান মন্ত্রী</w>
সিল ে
ট িক</w>
মৃত্য ুর</w>
জ গ
শহ রে</w>
চাল ু</w>
পা শা
প া</w>
ম ার
কি ং
বি ক্র
কেন্দ্র ীয়</w>
মু হাম্
শহী দ</w>
ন্ স
অভিনে তা</w>
জ য়
সা গ
গ্রাম ের</w>
অধ িকা
0 )</w>
ছিল ,</w>
কিলোমি টার</w>
ইউরোপ ীয়</w>
জ ্যের</w>
উপজেলা য়</w>
কা হি
ই ন্ট
দু ই
আস ন</w>
সমা জ
বহ ন</w>
ভ ্র
জান া</w>
ই ন্ড
বন্ধ </w>
ধ ন</w>
দ ,</w>
দক্ষি ণ
গ ী
শা ন্
ধর্ম ের</w>
আহ মে
তা ত্ত্
ণ ার</w>
পুর ,</w>
েল ের</w>
য ান।</w>
খ ো
খ াল
কিছ ু
বিশ্ব কা
ল াল</w>
্যাম ্প
ধার ণ</w>
2 5</w>
দে য়া</w>
গ িয়ে</w>
দক্ষি ণে</w>
8 4
জ িত</w>
সম্পর্ ক</w>
স্বা ধীন</w>
1 3</w>
ফি রে</w>
শাখ া</w>
দখ ল</w>
তি ।</w>
ক্ষ ু
মু জি
ভি ত্তি</w>
ম ,</w>
র ী</w>
পরিচাল ক</w>
শন াল</w>
র ।</w>
এক ক</w>
লি ন</w>
অ তি
পরি বর্
এক মাত্র</w>
বেশির ভাগ</w>
ঠ িক</w>
7 )</w>
বর ণ</w>
পাশা পা
লা হ</w>
র চিত</w>
ক্র ান্ত</w>
দ্বী প
একা ডেম
শ ক্তি
চৌধুর ী</w>
পর ের</w>
যো দ্ধ
অধ ্যাপ
ফ াই
র্ ট</w>
রাজ ্য
প্ লে
সাং স্
ঙ্গ া</w>
বহ ু</w>
অর্থা ৎ</w>
বন্দ র</w>
সাক্ষ রতার</w>
েছ েন।</w>
প্র যো
ল াল
স্থ </w>
মাত্র া</w>
কাঠ াম
পা হা
অনুসার ে</w>
দি তে</w>
2 1</w>
বাড় ি</w>
সম্ ভব
নির্ মিত</w>
চ ক</w>
পরি মাণ</w>
ুল ্
2 4</w>
8 )</w>
প দ</w>
পরি মা
ইত্যা দি</w>
সং রক্ষ
ঘট ে।</w>
শিরো নাম</w>
প ূ
উই ল
ক ূ
ত ো</w>
মান ের</w>
আয় ো
গণ িত
ই লেক
ইলেক ট্র
সংস্ কৃ
করেছ েন</w>
প্রতি টি</w>
ক্র ো
গা য়
পাকিস্ত ানের</w>
স্ ব</w>
শা হ</w>
বিজ্ঞ ানের</w>
গ্র িক</w>
( 197
মৃত্য ু
েন ের</w>
আ মার</w>
অলি ম্প
বা ব
;!--বাএ অঅ
;!--বাএঅঅ 84
;!--বাএঅঅ84 --</w>
িক ,</w>
না য়
উৎপাদ ন</w>
উন্ন য়ন</w>
টেলি ভি
ঁ </w>
আন্দোল নের</w>
স ত্য
সম্প্র দা
ক ভাবে</w>
পদ্ধ তি</w>
পাশাপা শি</w>
ব্যবহ ার
র ত</w>
সঙ্গ ীত
ওয়েব সাইট</w>
হ ার্
বি ন্দ
শ নের</w>
নে তা</w>
হ ক</w>
র চনা</w>
স ন্ধ
শাহ ী</w>
শিক্ষার্থ ী</w>
দ ার
ভ ার</w>
তি ত</w>
1 টি</w>
দৃ শ
প রাজ
শা স্
পু ত্র</w>
সম য়ের</w>
ই হু
প্র ত্যা
জাতি সংঘ
জীব নের</w>
কৃষ ি</w>
শ ালী</w>
ত নের</w>
যা তে</w>
ব্ দের</w>
200 6</w>
চ তু
হ্ ম
ধ্ব ং
সাং বাদ
এ কে</w>
সাংস্ কৃতিক</w>
জু ড়ে</w>
এ ল</w>
দ শ</w>
আর ো</w>
প্র তী
ব্যাপ ক</w>
বিরোধ ী</w>
ন ারী</w>
সং স্থা</w>
ান ার</w>
অ ত্য
সংস্ কৃতি</w>
অস্ট ্রে
র োগ
উত্ত রে</w>
ঐ </w>
ন ীয়</w>
9 )</w>
রে কর্
( 198
ঘট না
উপন্যা স</w>
উপজেলা ,</w>
বিদ ্রো
ান োর</w>
ব নে</w>
ভ াল
ভা গ
কার ে</w>
প্র ত্য
শাস ন</w>
জ ার
স ী</w>
জ্যো তি
ণ ।</w>
গর ীয়</w>
জা তীয়
ৃ তি</w>
পরিচাল িত</w>
ঙ্গ ল</w>
শে ষে</w>
সো ভিয়ে
তাত্ত্ বিক</w>
অস্ট্রে ল
উৎ স</w>
গ্রাম ে</w>
তা ন</w>
পদ ক</w>
প ন</w>
শ ার
ব্ ল
পা বল
শী ল
প্র ি
2 3</w>
ল ন্ড
আলো চনা</w>
মিল িয়ন</w>
রয় েছে,</w>
ফার সী
আক্রম ণ</w>
ন্দ র
না গর
প্রয়ো জন
খ ে</w>
স রা
প্রতিষ্ঠ া
ন্যা শনাল</w>
ন জ
ইত্যা দি
হা তে</w>
প্রতি নি
বর্ গ</w>
সর্ বা
জন্ম গ্রহণ</w>
ল স</w>
হত্য া</w>
য় িত</w>
সু ই
ব দ্ধ</w>
কর লে</w>
চু ক্তি</w>
দৈ র্ঘ
অভ ্য
ও ,</w>
ো দ্
ন্ত্র িক</w>
এলা কা
ক ং
টি ।</w>
দ ানের</w>
ে ক</w>
5 0</w>
প াল</w>
যুক্ত রাষ্ট্র</w>
এলা কায়</w>
র কে</w>
স্থ ার</w>
প্রযুক্ তি</w>
পরি বার</w>
ধ ি
িল ি
ধ ু</w>
পা য়।</w>
প্র কল্প
2 2</w>
লো ক</w>
ট ো</w>
ছা ড়া</w>
ণ ু
প্র কৌশ
সোভিয়ে ত</w>
গ ণ</w>
আ রে
সে রা</w>
শী র্
দ ী</w>
গ ার</w>
বাংলাদেশ ে</w>
প ত্র</w>
েম ্ব
ও পর</w>
ট ু
বি স্
পার ে
স্থা য়ী</w>
আর্ জে
বংশ োদ্
ল্যা ন্ড</w>
দ্বী প</w>
নি ত</w>
সং সদ
ইন স্টি
পুলি শ</w>
ইনস্টি টিউ
বৌ দ্ধ</w>
খ ণ্ড
ার ে
ন্ত র</w>
আ ত্ম
বা ম</w>
ক্র মে</w>
হলে ও</w>
বিভ ক্ত</w>
অ গ্র
অনে ক
হয়েছিল ,</w>
আ ছ
ব দ
; ''</w>
প্র স্ত
ম ্যান
অত্য ন্ত</w>
্য ারি
কা উন্
শ ূ
রাখ া</w>
হো সেন</w>
নী ত</w>
হ ওয়া</w>
বি চার
শব্দ টি</w>
খ ্যা</w>
নিয় া</w>
ক্র িয়</w>
ঔপ ন্যা
জেন ারেল</w>
সা ঁ
নি জ</w>
দি নে</w>
দূ র
ূল ক</w>
ভ্র ম
চ ের</w>
না জ
( 196
প্র মাণ</w>
ম াম
পা ন</w>
আবিষ্ কার</w>
প্র ভ
গ্র ু
সং বিধ
দ ৃষ্
ণ ্য</w>
ফারসী ম--</w>
পা ই
থে ক
লে ন</w>
জেলা য়</w>
ক্ট র</w>
অধিকা ংশ</w>
কলে জ,</w>
ল ,</w>
বর্ গ
2 6</w>
য ন্ত্র
সাম্রা জ্যের</w>
ী র
ক ্য</w>
ন ব
একা ধিক</w>
ল্যান্ড ের</w>
18 4
প্রচল িত</w>
্যা ন্ড
( 199
0 -এর</w>
এ খন</w>
দে ন</w>
লা ভ
পা খ
বায় ু</w>
সাহায ্য</w>
প থে</w>
সাহিত্য িক</w>
সম্পর্ কিত</w>
ী য়
নী তি</w>
থা কা</w>
পরি বেশ
টি ভ
ার্ থ</w>
201 0</w>
বে ক্ষ
ম ারা</w>
উদ্ ভি
আর্জে ন্টি
আ ল্
থ ানা</w>
আমের িকার</w>
ড ো
প্র ণ
ি ং</w>
লে ও</w>
এম ন
ই ন্দ
খুল না</w>
ত াম
স্ট ার</w>
েন ে</w>
রো মান</w>
টে ক
কে উ</w>
সম্রা ট</w>
জ েন</w>
200 7</w>
পরিচাল না</w>
্যা ন</w>
ছা ত্র
স্বী কৃতি</w>
সিদ্ধ ান্ত</w>
তুল নায়</w>
মাঝ ে</w>
আ ব্
ম ী</w>
ভার ত
স ুল
উত্তর -
িক ।</w>
মুক্তি যোদ্ধ
সদস ্য
খ ান
দা বি</w>
প্রস্তা ব</w>
জ ৈ
দি নের</w>
দশ কে</w>
নেই ।</w>
আ ও
ক ী</w>
বা হ</w>
ব্যক্তি গত</w>
জা য়
ব্যাং ক</w>
ু ল</w>
বৈ জ্ঞ
স েল
সং জ্ঞ
শ োর</w>
গ ্র</w>
দক্ষিণ -
— </w>
ব ান
প্র বেশ</w>
জ্য াম
সৈ য়
ুয় ারি
নি হত</w>
পৌর সভা</w>
সম্প ন্ন</w>
শ ু</w>
হয়েছ ে,</w>
আর ব</w>
শু ধু
িক ের</w>
অ ধ্য
রো ধ</w>
ন র
কা শ</w>
200 8</w>
কলকা তার</w>
ক ানা
কাল ের</w>
গা ছ
ইসলাম ী</w>
দীর্ঘ </w>
ক্র ী
প্রাচ ী
হিন্দ ু
ন্তর িত</w>
বংশোদ্ ভূত</w>
বি চ্ছ
টেলিভি শন</w>
রাজ শাহী</w>
বিষ য়</w>
বর্ ধ
কুর আ
অ ক্ষ
স্বা ক্ষ
নিবন্ধ </w>
বার্ ট</w>
অব দান</w>
কং গ্রে
ন কে</w>
নির্ মা
বিশ্ লে
বে ল
যু গের</w>
শ াল</w>
তো ।</w>
ত্যা গ</w>
মৌ সু
গ ৌ
নির্ দেশ</w>
সরকার ী</w>
আন্দোল ন</w>
দে য়</w>
কে বল</w>
রক্ষ া</w>
শুধু মাত্র</w>
গ িয়
ড ান</w>
সম্ মান
সম্ ভব</w>
ইন্ট ার
ইউ আর
ঙ্ ক
আ ওয়
মত ে,</w>
ো প
ডি ও</w>
কোম্প ানি</w>
মসজি দ</w>
বিদ ্য
বি ংশ</w>
ড় ার</w>
ল্ ড</w>
ঢা কার</w>
চার টি</w>
ঘ র</w>
বা গ
ক্রিকে ট</w>
এশ িয়ার</w>
বৈজ্ঞ ানিক</w>
এ ল
আ ল</w>
চি ন্
প্ তা
কা ছ</w>
ঈ শ্ব
আ দি
ব লি
200 5
বু দ্ধ
করত েন।</w>
পরি বারের</w>
বাণি জ্য
ন ক
ক্র ি
ইউনিয় নের</w>
রূ পা
ব্যা খ্যা</w>
সম ন্
া য়।</w>
য়ে ল</w>
চ া</w>
টি ন</w>
বস বাস</w>
নিয়ন্ত্র ণ</w>
পরাজ িত</w>
বি ত
ধী রে</w>
বাহ িত</w>
গ্রন্ থ
জ্যোতি র্
মে ঘ
শিক্ষ ক</w>
অব শ
ফ ুল
ব ন
লক্ষ </w>
আব দুল</w>
দি নাজ
দ ু</w>
পুন রায়</w>
সু বিধ
ড িক
2 8</w>
গ্রী ষ্
;!-- ফারসীম--</w>
বো র্
পর্ তু
উইকিপিড িয়া</w>
অবস্থ ায়</w>
জন ।</w>
ভি ত্
ঞ্ জ</w>
রেল ওয়ে</w>
বি র
মুস ল
কর া।</w>
আওয় ামী</w>
মি টার</w>
ক ট
ট ্রা
ক্যাল ি
ফ স
ন্ড ার</w>
চ্ছ ে।</w>
কৃষ্ ণ</w>
গ া</w>
ইউনি ভার্
সমর্থ ন</w>
200 4</w>
ই বনে</w>
ম ।</w>
নি জ
স মান</w>
ঐতিহ ্য
জ ড়
দ পুর</w>
নি শ্চ
পৃ থ
পৌ ঁ
ক ঠ
কর্ম কর্
ম ারা
রি র</w>
অন ুর
মন্দ ি
বৈশিষ্ট ্য</w>
কা জের</w>
মে ন্ট</w>
স ৃ
কো নও</w>
ার িত</w>
পরবর্ত ী
কা ছ
সম গ্র</w>
ই রা
প ্যা
201 2</w>
ছ বি</w>
ঠা কুর
কখ নও</w>
সা ত
পরিকল্প না</w>
দ্র ুত</w>
বল ী</w>
কোম্প ান
দ িল্
তা ন্ত্রিক</w>
বে গ
শব্ দের</w>
ু টি</w>
এ সে</w>
ফ ার্
আহমে দ</w>
ষ া
ম ূর্
ন গর
আ জ
র ণ</w>
বিভা গ
ের -
ম ণ্ড
মন্দ ির</w>
নেতৃ ত্বে</w>
মাদ্রা সা</w>
পর মাণ
ো ।</w>
200 0</w>
শী ত
প্রতি যোগি
দ র
কা ব্য
গ্রন্ থ</w>
পশ্চিমবঙ্গ ের</w>
জ য়</w>
েন ে
ড় ের</w>
জ ্ব
দা ঁ
লী গ</w>
সরা সর
দ ান
অধ্যাপ ক</w>
ম তে</w>
এক টা</w>
(জ .
অভ্য ন্ত
( 200
বা দের</w>
ক থা
ধার া
ঞ্ জি
শিক্ষ ার</w>
নির্বাচ ন</w>
পদ ার্থ</w>
ু তে</w>
প্ লা
নিম্ ন</w>
আ মাদের</w>
সরাসর ি</w>
শ াল
; )</w>
জা দু
ত্ম ক</w>
ক্ ল
কা জে</w>
199 1</w>
পরিষ দ</w>
প ার্থ
পা শে</w>
এ ক্স
ক্যালি ফোর্
কয়ে ক</w>
সে ন্ট</w>
প্র কৃ
নদ ী
নি ষ
েন ীয়</w>
2 7</w>
ত্ থ
প োল
ই র
ার্ স</w>
েম স</w>
প্র খ্যাত</w>
'' দ্য</w>
প্রচ ুর</w>
উদ ্য
গা ঁ
নী তি
200 9</w>
আপ নি</w>
স্বাস্থ ্য</w>
অ পারে
মে ডিক
ত ভাবে</w>
আস ে।</w>
বৃহ ৎ</w>
মি র</w>
রু ল</w>
হ ে</w>
অধ িকার</w>
পুন র্
নি রাপ
শ র
বি পর
201 4</w>
য থা
বিবে চনা</w>
ম ডেল</w>
হাস পা
া তে</w>
েছ িল</w>
2 9</w>
বু ল</w>
স্থাপ িত</w>
রা সায়
ত েন।</w>
না ত
ল ম্ব
অভি নয়</w>
আনু ষ্ঠ
ওয়ার্ ড</w>
উপাদ ান</w>
বি ল</w>
দেখ তে</w>
পো রে
ফ িল্
সং গ
সম্ ভাব
ডিগ্র ি</w>
পর্য বেক্ষ
স ্য</w>
খ্রিস্ট পূর্ব</w>
সাহিত্য ের</w>
বি বি
িক্ স</w>
জীব ন
এ ন্ড</w>
অভিনে ত্র
জর্ জ</w>
নে য়।</w>
এ ড
বিদ ,</w>
ভব ন</w>
বস্ত ু</w>
চ লা
উদ্দেশ ্যে</w>
সাগ রের</w>
হ র</w>
লা ,</w>
টি ং</w>
সং গ্রহ
আলা দা</w>
পা ঁচ
অধ িক
গভ র্
ড ার</w>
কো ষ</w>
বল ে।</w>
প্রজা তন্ত্র
মু ঘ
পুর ের</w>
200 5</w>
অবস্থ া</w>
201 3</w>
রাষ্ট্র প
জনপ্র িয়
সমু দ্র
বল তে</w>
পার মাণ
উদ্ ভাব
পারমাণ বিক</w>
স ন্ত
200 1</w>
তথ া</w>
চলচ্চি ত্র
দৈ নিক</w>
উভ য়</w>
প্রযো জ
কার ।</w>
কো টি</w>
ছো ট
প্রেসিডে ন্ট</w>
প্রথ ম
বু ঝ
্যা ন্ড</w>
ইসলাম ের</w>
জন ্য।</w>
্র ু
0 1</w>
দশ কের</w>
কর েন
বে ও</w>
থি ও
ত্ত িক</w>
জা প
মানু ষ
বিশ াল</w>
হ ত।</w>
প্র ের
নিজ স্ব</w>
জ াল
পৃ .</w>
এলা কার</w>
প থ
ড ,</w>
ভা গে</w>
তাপ মাত্রা</w>
ক ীয়</w>
ই য়া
পার্ ব
(মৃ .
কর ণের</w>
মু দ্র
আম রা</w>
আদ াল
সিং হ</w>
ষ্ টি</w>
এ টা</w>
নির্বাচ নে</w>
ফ্রান্ সের</w>
সিলে ট</w>
চিহ্ নিত</w>
ক্ষ ম</w>
স্ তা</w>
স ারা</w>
জন গণ
বিভা গে</w>
কর্ পোরে
আ ফ
র ঙ
দ ্রা
হ ্রা
ধর ন</w>
উইল িয়াম</w>
র ং
ফ র</w>
ছা ত্র</w>
লিখ িত</w>
ধ ের</w>
স ।</w>
ত্ তা</w>
197 2</w>
লক্ষ ্য</w>
গুল িতে</w>
ন্দ া</w>
গ ান
ক লা</w>
ফে ড
নিয় োগ</w>
সি র</w>
আ ঞ্চ
প্রথ মে</w>
দেশ টির</w>
কলে জের</w>
গা ণি
শু ধু</w>
আর্ থ
ত ড়ি
গ তি
ঘট না</w>
মি ন
এখ ান
চে য়ার
বাই রে</w>
প্রয়ো জন</w>
18 3
সর্বা ধিক</w>
ম ারি</w>
ঢা কা
বার্ ষ
প্রজা তন্ত্র</w>
সড় ক</w>
চ র</w>
বে ন</w>
সা ধ
পা ঁ
রে ল</w>
সৈয় দ</w>
ি ।</w>
প দ্
ইউরো পের</w>
শ রী
চলচ্চি ত্রের</w>
কার্য ক্রম</w>
দর্ শ</w>
পক্ষ </w>
ফি ফা</w>
কো ড</w>
নির্ দেশ
ন য়,</w>
বিদ ্যু
শ ং
ওয় ায়</w>
রাসায় নিক</w>
ম্ ভ
ছ ে
র্ তি</w>
র সায়
ফুটবল ার</w>
পরি বহন</w>
উন্ন য়
ঠ </w>
স্টে শন</w>
ফ ্রে
প --</w>
অস্ট ্র
প্রাচী ন
পরবর্তী কালে</w>
সম্ভব ত</w>
;!--সং অঅ
স ক্ষম</w>
;!--সংঅঅ 2005
;!--সংঅঅ2005 --</w>
খা দ্য</w>
আব ু</w>
গল্প </w>
ফ িলি
পরি চ
ব রি
বন্ধ ু</w>
থ া</w>
সর ণ</w>
করেছিল েন,</w>
ব ুর</w>
শতা ংশ</w>
বয় সে</w>
প ঞ্জ
থাক ে,</w>
কি মি</w>
হ িল
পূর্ বা
গা ন্ধ
মূল ক</w>
পৃথ ক</w>
বি ন্যা
রাজ ্যে</w>
সং যুক্ত</w>
হলে ন</w>
2 1
কার ,</w>
এ টিকে</w>
যাত্র া</w>
ধ ্রু
আঞ্চ লিক</w>
িক্ ত</w>
ইসলাম ি</w>
উদাহর ণ
চতু র্থ</w>
পর ,</w>
হ েল
সি নে
স্ট ্র
ইতাল ীয়</w>
থাক তে</w>
মা দ</w>
মান িক</w>
পার ে,</w>
2 টি</w>
মান ব</w>
পা ড়া</w>
আর্ ম
দে ওয়ার</w>
জমি দার</w>
বাণি জ্য</w>
সংখ্য ক</w>
বে দন</w>
ইহু দি</w>
বিস্ত ারিত</w>
প ার</w>
বাহি নী
কার্য কর</w>
সর বরা
গাণি তিক</w>
াম া</w>
ইতিহা সে</w>
অংশ ে</w>
দুই টি</w>
ভ িয়
ট ওয়
সি রাজ
জল বায়ু</w>
ম ী
ন ূ
. ,</w>
কা ঁ
টি ল</w>
গভর্ ন
াল ের</w>
সী মান
ক মা
গ ানের</w>
য ন্ত্র</w>
অ </w>
চ ল</w>
ণ ু</w>
কে ল</w>
1 00</w>
বস তি</w>
এমন কি</w>
জ টিল</w>
ত ী</w>
জ ল</w>
মা য়
. .</w>
ম ঞ্চ
ইউনিভার্ সিটি</w>
ধ া</w>
গণ িত</w>
খ ন
ল ঙ্
বিস্ত ৃত</w>
199 0</w>
সমা জ</w>
ঘ ন
চিকিৎ সা</w>
অভিনে তা।</w>
ক্রিকে টার।</w>
দৈর্ঘ ্য</w>
ভি ত্তিক</w>
ম য়</w>
ত ্রে
ক ণ্
প ড়ে</w>
শত কে</w>
ইউআর এল</w>
হ রি
তি ত্ব</w>
রূপ ,</w>
ব ড়
চ ক্র
নি চে</w>
ন্ তে</w>
ার্ ড</w>
ব্যাপ ী</w>
ইত্যাদি ।</w>
প্র ব
থা কার</w>
আরে কটি</w>
জাতিসংঘ ের</w>
প্র শিক্ষ
শ ক্তির</w>
ইনস্টিটিউ ট</w>
মা হ
প্র দর্শ
ক্লা ব</w>
নির্ভ র</w>
ব্রা হ্ম
নিশ্চ িত</w>
পা তা</w>
সম ৃ
মু ক্তি</w>
খু ঁ
; –</w>
চ ো
ন ানা</w>
তত্ ত্ব
দে রকে</w>
পা থ
উ পরে</w>
201 5</w>
পর্যা য়ে</w>
আ দর্শ</w>
0 .
ভা ই</w>
পে শা
হে তু</w>
বিদ্যাল য়,</w>
উ ল</w>
ট স</w>
ত্ ন
গ ুর
মু হাম্মদ</w>
খ্রিস্টা ব্দে</w>
সংসদ ীয়</w>
পাকিস্ত ানি</w>
কমি উনি
সহায় তা</w>
বি হ
কা ই
মি নি
কর েছে</w>
শতাব্দ ীতে</w>
ছ ড়িয়ে</w>
হ াল
ঔপন্যা সিক</w>
মেডিক েল</w>
সফ টওয়
কো ষ
বাড় ী</w>
েছিল েন,</w>
খে লা
গঠ িত।</w>
বে ঙ্গল</w>
ময় মন
ও ল
( ''</w>
সমস ্যা</w>
সে বা</w>
201 6</w>
20 18</w>
উৎপ ন্ন</w>
রেকর্ ড</w>
গ তি</w>
আপ নার</w>
উদাহরণ স্ব
ই ঞ্জি
ু ,</w>
ুর ি</w>
ন্দ্র নাথ</w>
শক্তি শালী</w>
ধ ে</w>
অনু বাদ</w>
মা ছ</w>
বর্ত ন</w>
র িয়া</w>
সাম য়
যা ওয়ার</w>
199 6</w>
প্রয় োগ</w>
বিষয় ক</w>
ড়া ই</w>
( 195
194 7</w>
টে ড</w>
202 2</w>
এখ নও</w>
ইতিহা স
প্রো গ্রাম
ক ক্ষ
জ্ঞ </w>
প্র শ্
পড় ে।</w>
র োগ</w>
সম্ মেল
উ স</w>
দ ুর</w>
ত াল</w>
198 3</w>
খেল ার</w>
চ ্যাম্প
একাডেম ি</w>
কা জ
'' )</w>
ষ্ টি
4 0</w>
20 20</w>
আয় তনের</w>
বি দেশ
স্ নাত
আদ ম
মহ কু
করেছ িল</w>
গোষ্ঠ ী</w>
গোষ্ঠ ীর</w>
দিনাজ পুর</w>
এ ফ
2 5
ফ ্যা
দি ন
মাল া</w>
গঠ নের</w>
হ া</w>
20 19</w>
জা য়</w>
কো র্
িয়া স</w>
অন্তর্ গত</w>
সাম্রা জ্য</w>
ক্ ত।</w>
প ল</w>
ক্ লি
কয়ে ক
দা স</w>
নির্ ধার
নী ল</w>
ণ্ড িত</w>
ক্যা থ
1 ,</w>
পুর ো
সংস্ কৃত</w>
দ ত্ত</w>
প্রতী ক</w>
প্রভ ৃতি</w>
ভ র্তি</w>
ব্ দ</w>
কলে জ
এই চ
সাংবাদ িক</w>
বর্ ষ
ব্যক্তি ত্ব</w>
তারি খে</w>
বি ন</w>
রা জা
সাম ্
সে ল</w>
পদ ে</w>
ন ৈ
ভা ব</w>
শ িয়া</w>
যু গ</w>
পি ছ
নি বেশ
এ ফ</w>
মিল ্
ছা ড়াও</w>
ম তি</w>
0 2</w>
বি লু
চ াই
ঘা ত</w>
জড় িত</w>
স্বা ভা
পরি সংখ্যা
অভিনে ত্রী</w>
আ চর
ট িক
পরিসংখ্যা ন</w>
নিয় ার</w>
3 1</w>
ত োল
ডা ক</w>
হয় নি।</w>
প্রভা বিত</w>
2 য়</w>
ট ার
ক ুর</w>
বি য়ে</w>
0 3</w>
থাক েন।</w>
উল্লেখ যোগ
ইউনিয় ন
মে ট্র
ন ারা
জী বিত</w>
মুঘ ল</w>
গ ো</w>
ড েন</w>
পর্ব ত
বিচ্ছ ি
বাণিজ্য িক</w>
ফ ি</w>
শ র্
হ ান</w>
জ েমস</w>
আফ্র িকার</w>
কার ণ
বাংলা য়</w>
হ্রা স</w>
কর ছ
কা ন</w>
গ েছে।</w>
গ্রহ ণ
প্রজা তির</w>
অ্যা ড
তুল ে</w>
া য়িত</w>
ফ্রা ন্স</w>
বহু ল</w>
;!--সং রা
;!--সংরা অ</w>
? </w>
কর ে
জা ত</w>
ছিল ো</w>
0 4</w>
সভ ার</w>
তা বাদী</w>
উৎপ ত্তি</w>
কাহি নী</w>
কাঠাম ো</w>
আব্ দুল</w>
সমন্ ব
198 4</w>
শে ষের</w>
আলো চ
ঘা ট</w>
তার পর</w>
খে লায়</w>
বন্দ ্য
বন্দ্য োপাধ্যা
ড ে</w>
যা দের</w>
পরীক্ষ া</w>
গ্রীষ্ ম
মুহাম্ মাদ</w>
6 0</w>
ধ রা</w>
সং শ্
ক্রিকে টার</w>
তা হলে</w>
ওঠ ে।</w>
ব্রা জিল
সি রি
গণ ি
ব ারে</w>
খ্রিষ্টা ব্দের</w>
ভ্রম ণ</w>
ঘ ি
ফ লা
ক ্রে
জন ক</w>
এ রা</w>
সম্প দ</w>
197 5</w>
রাজনীতি বিদ।</w>
ন েন।</w>
প্রা ণী</w>
মান ব
সু যোগ</w>
এ গুলো</w>
শিল্প ী।</w>
স ত্ত্
4 টি</w>
পি তা</w>
সো সাই
ত্রি ভু
প্রায় শ
গুলো তে</w>
গণিত বিদ</w>
সম্প্রদা য়ের</w>
গ র্
1 .
শি শু
% ;</w>
আ কা
অনু মো
যা ওয়া</w>
শ ্বর</w>
ই স্ট</w>
খেল া</w>
নি যুক্ত</w>
র্ ণ</w>
কা ছা
ড়া ,</w>
লাই ন</w>
ি তা</w>
নে ই</w>
197 0</w>
সার্ ব
অলিম্প িক</w>
0 8</w>
মর ্যা
স্থি তি</w>
িয় ান
ধার ণা
পর্যা য়</w>
প্রায়শ ই</w>
্ </w>
নি তে</w>
শাস িত</w>
যু গে</w>
রী ণ</w>
ধারা বাহ
ী কে</w>
াই ন</w>
পান ির</w>
কা জী</w>
প্র ত্ন
ক েন
টি )</w>
নিক ট</w>
প ণ্ডিত</w>
নারা য়
যা কে</w>
ক্র া
জ্ঞ ান</w>
উন্ন ত</w>
প্র ার্থ
পাঁ চ</w>
বিদ ্যা
আ কর্
স্ ত্রী</w>
বিল িয়ন</w>
বিশ্ববিদ্যাল য়ে</w>
ক্ষু দ্র</w>
যে হেতু</w>
ঢ ়
ট ্রে
য় ান</w>
পুরু ষ
তিক্র ম</w>
নাম া
য় ী,</w>
202 4</w>
সমু দ্র</w>
য়া খালী</w>
্য ই</w>
সম ী
া দের</w>
0 5</w>
আস েন।</w>
মৌ ল
উপজেলা ।</w>
চট্ টো
পার্থ ক্য</w>
সাম্ প্র
চট্টো পাধ্যা
ট র</w>
য় টি</w>
মে য়া
ঘট ে</w>
ধ িকার</w>
্যান ি
সং গ্রহ</w>
পাবল িক</w>
হ তো।</w>
আদম শু
স্ ত্র</w>
ব্যব সা
স্ট ্রি
0 7</w>
উ দ্ব
প্র চার
পর্য টন</w>
ড .</w>
্য তা</w>
উ ন্ড
জা তির</w>
198 6</w>
প ্যারি
উ দ্ধ
ইউ র
মা সের</w>
াই ল</w>
কবি তা</w>
রূ পে</w>
নির্ভ র
স্ ক</w>
প তা
স্ কো
ব্যবহ ারের</w>
এ সব</w>
পরিষ ে
সমূ হের</w>
;!--বাএ ইং
সূর ্য</w>
অ ণু
ের- তারিখ</w>
কু মিল্
;!--বাএইং বাং
;!--বাএইংবাং --</w>
উত্ত রা
খু বই</w>
প্রতিষ্ঠা তা</w>
প বি
রু শ</w>
চ ন্দ্র
বৃহত্ত র</w>
সম্পাদ না</w>
অভিনেত্র ী।</w>
ছে ড়ে</w>
ভিয় েন
বে র
মি উ
ত েম
196 0</w>
স্থাপ না</w>
বর ং</w>
অংশ গ্রহণ</w>
স্থ িত</w>
মি ড
বায় ু
দ প্ত
করত েন</w>
বিপ্ল বী</w>
নির পেক্ষ
পরিচ য়</w>
আ শ
উ র</w>
অধ িক</w>
199 8</w>
গৃহ ীত</w>
নাট্য কার</w>
ব ্রে
) ''</w>
গ রি
প ান।</w>
( জন্ম</w>
চী নের</w>
ভিত্ তিতে</w>
ম ীর</w>
3 টি</w>
বছ রে</w>
গুরু ত্ব</w>
উৎ সব</w>
খেলোয়া ড়
পরিবর্ তিত</w>
দ ৌ
র ও</w>
আ ই</w>
ধ ারা</w>
বিজ্ঞ ানে</w>
প ড়া
তাঁ কে</w>
অনু সরণ</w>
সি )</w>
চ ীন</w>
পার্ টি</w>
বা সী
বিদ ্যা</w>
ুল্ লাহ</w>
ক্ষে ত্রে
কাছা কাছ
স কে</w>
গ ল</w>
মে জ
নে ট
শে ষ
201 7</w>
199 2</w>
ন্ট ের</w>
উ র্
জা তি</w>
প থের</w>
পা স</w>
আ বাস
সন্ধ ান</w>
স ্য
নি ,</w>
ত ুর
ধ ানে</w>
ইউ টি
0 6</w>
সং স্থা
মহা দেশের</w>
17 9
সং ক্রান্ত</w>
আ ক্রান্ত</w>
সার ে</w>
নি র</w>
রেখ ে</w>
কখ নো</w>
আর্ কাই
ক্ষে ত্র</w>
ভৌ গো
সংস্কৃ তির</w>
আ কারে</w>
তড়ি ৎ</w>
ভৌগো লিক</w>
রা জ</w>
ষ িত</w>
ভ বিষ
কর ত।</w>
স্টে ড
রবীন্দ্র নাথ</w>
পো র্ট</w>
বিস্ তার</w>
কানা ড
. ..</w>
প রা
লে ,</w>
প্র দেশ</w>
পে র
মু খ</w>
প্রধান ত</w>
অনুসার ে,</w>
বাল িকা</w>
বার্ষ িক</w>
198 0</w>
ব্রি ট
স্বাধীন তার</w>
ী ণ</w>
নিউ ট্র
স ুর</w>
মান ।</w>
199 9</w>
আস নের</w>
বি পক্ষে</w>
চিকিৎ স
প্রায় ই</w>
স ক্রিয়</w>
গ্রু প</w>
স প্তা
যা য়
গ ্যাল
খ্রিস্ট ান</w>
কলকা তায়</w>
সফ ল</w>
বিদ্যু ৎ</w>
শান্ তি</w>
ও বা
িল ে</w>
ট ার্
প ণ</w>
িক দের</w>
গ্রে গরীয়</w>
সংবিধ ান</w>
ইন্দ ো
গ ার্
এক ু
200 3</w>
ডা কো
দ্বীপ পু
ড ল
ওয় েল
উচ্চ তা</w>
বিশ্বকা প</w>
অভ্যন্ত রীণ</w>
অ সংখ
হ ালি
দ্ব ন্
গুলো কে</w>
স্মৃ তি
নিউ ক্ল
অসংখ ্য</w>
সি ং</w>
যোগ ী</w>
বে সরকারি</w>
ভবিষ ্য
ভ া</w>
কর ু
ব ্ব
স্থ ানের</w>
জীব ী</w>
হ ্র
ন্ থ
ব ক</w>
জীব নে</w>
সং বাদ
মি শ্র
লেখ ক।</w>
মুসলি ম
ভাল ো</w>
1 ম</w>
ন্ না
রা ঙ্গ
ম ন্ত
মুখ োপাধ্যা
ফ র
শি শু</w>
বুদ্ধ ি
199 7</w>
রাষ্ট্র ের</w>
বিজ্ঞান ী।</w>
চেয়ার ম্যান</w>
ব্যাপ কভাবে</w>
কলকা তা,</w>
ভূ গোল</w>
ঐতিহ্য বাহী</w>
মা ছ
বে ই</w>
ঞ্চ ল</w>
199 4</w>
মুখ ে</w>
মে ক্স
উপ কূ
রং পুর</w>
কার খ
পার ি
স বু
194 5</w>
জাম াল
স্বী কার</w>
স্ মর
অ পেক্ষ
পরিবর্ তে</w>
স ঠিক</w>
সংগ ীত</w>
শ ৃ
বা বা</w>
চ ্যাপ
ছ ুটি</w>
বে দ
স্ ত্র
গভ ীর</w>
সৈ ন্য
আ ঁ
প্র তিক্র
হ চ্ছে।</w>
অনু মান</w>
ইংরে জি
বস ু</w>
নিজে দের</w>
সীমা ন্ত</w>
বেল জ
( ইউটি
গুল িকে</w>
আর বি</w>
হাই ড
আছ ে,</w>
পাঁচ টি</w>
হ ওয়ায়</w>
ন্ তি</w>
র াম</w>
ন্ ডি
পশ্চিমবঙ্গ </w>
অতি র
সং গঠন</w>
ডিসে ম্ব
ল ।</w>
ক েল
শি ং
লা ন্ট
বৈ চিত্র
খ ণ্ড</w>
বিমান বন্দর</w>
বরি শাল</w>
(ইউটি সি)</w>
কি ং</w>
অ ন্ত
ইতিহা সের</w>
প্র বাহিত</w>
গাঁ ও</w>
ঙ্গ ি</w>
7 0</w>
পার েন।</w>
দ্বী পের</w>
ফোর্ ড</w>
বেশি ।</w>
াল ে</w>
শৈ লী</w>
ল ক্ষ্
হ ্যা
দে ব</w>
আফ্র িকান</w>
অন্য দিকে</w>
প্রধান মন্ত্র
উদ্ভি দ</w>
র বার্ট</w>
আ ক
চ ূ
কার া
আ রো
আমের িকা</w>
সাক্ষ া
নির্ ধারণ</w>
য থে
আ সে</w>
চলচ্চি ত্রে</w>
গ্যা স</w>
স্থানা ঙ্ক</w>
মুজি বুর</w>
চি ত।</w>
মিল িত</w>
রাখ ার</w>
ইলেকট্র ন</w>
দূ রে</w>
বাস্ত ব</w>
চ ি</w>
গ্র ি
ম ঙ্গ
খ িল</w>
200 2</w>
বাংলাদেশ ি</w>
197 3</w>
গবেষ ণা
শো না</w>
এশ িয়া</w>
কর ণ
কি উ
বা তা
সা য়ে
কিং বা</w>
মৃত্যু বরণ</w>
সুবিধ া</w>
সফটওয় ্যার</w>
স্বাভা বিক</w>
পবি ত্র</w>
আট লান্ট
সা দ</w>
ছিল েন,</w>
সার িত</w>
যুক্তরাষ্ট্র ে</w>
ব্য ক্তির</w>
ব জায়</w>
কী ভাবে</w>
সম ি
হা ট
মু না</w>
বি হার</w>
বয় স</w>
নেট ওয়ার্
3 0
ক্ষ া</w>
নাম টি</w>
লি র</w>
বল েন,</w>
বিশ্ বে</w>
সা গর
প্রভা ব
সেনা বাহিনীর</w>
আল্ লা
নিরাপ ত্তা</w>
অ র
ট ্যা
শা ন্ত</w>
ব্র ু
অ ল্প
ব্য র্থ</w>
মো হন</w>
গ্রাম ীণ</w>
চ র্
যু গ
তত্ ত্বের</w>
ঘট িত</w>
তী রে</w>
আ শ্র
নাট ক</w>
ব লেন</w>
পঞ্জ িকার</w>
ন বা
সেনা বাহিনী</w>
জার্মান ি</w>
ঘ ূর্
198 9</w>
যোগ ের</w>
নী ল
চা ষ</w>
আ দি</w>
র গঞ্জ</w>
সহ যোগি
মেজ র</w>
াল ্
পর াম
গ ঙ্গ
হা সি
মু হ
ট াল</w>
জ মি</w>
ক্ষে ত্র
সে ক্ট
প্রক্র িয়া
নৃ ত্য
বি বাহ</w>
ঘটনা বলী</w>
বিন্যা স</w>
স্ তি
দেশ িক</w>
বা সের</w>
ম ারী</w>
বিন্দ ু</w>
নজ রুল</w>
একু শে</w>
ো ,</w>
কর ি</w>
ড় ায়</w>
বছ র
সঙ্গ ী
হয়েছিল েন।</w>
17 8
ত েই</w>
সভা য়</w>
অভি হিত</w>
সরবরা হ</w>
হা ই</w>
হা ত</w>
ত লা</w>
0 9</w>
গণ ্য</w>
শিল্প ের</w>
চা হি
ত ারা
রেখ া</w>
জার্মান ির</w>
দিক ের</w>
গবেষ ণার</w>
দৃষ্ টিভ
ঘ ন</w>
ে দ</w>
196 9</w>
194 8</w>
স ্যার</w>
2 ,</w>
5 টি</w>
যে টি</w>
প্র দেশের</w>
বিশ্ব যুদ্ধের</w>
সমালো চ
ব্যব স্থার</w>
থেক ে।</w>
আ বুল</w>
উপ স্থিত</w>
ট াম
ন্ত ের</w>
পুর ো</w>
শাস নের</w>
জি ৎ</w>
দে বী</w>
নিয় মিত</w>
ব্যা পারে</w>
নিজে কে</w>
প্রক্র িয়া</w>
জাহা জ</w>
সন্ তান</w>
পৌঁ ছ
পরাম র্
ব েন
ত েন</w>
শ্র ু
প্র কৃত</w>
িয়াম ের</w>
আয়ো জন</w>
জ্যাম ি
পার্ ক</w>
কি শো
সীমান া</w>
খ ের</w>
আহ মদ</w>
সম্পাদ ক</w>
অপ রা
ময়মন সিংহ</w>
অনুযা য়ী,</w>
সি স্ট
ন াল</w>
তু র্
ধার ার</w>
উ ক্ত</w>
জন ্যে</w>
বৃদ্ধ ির</w>
র প্ত
উদাহরণস্ব রূপ,</w>
কাছাকাছ ি</w>
অতির িক্ত</w>
সমা জের</w>
নে ওয়া</w>
ের িয়া</w>
বি চার</w>
ঐতিহ ্য</w>
সমালো চনা</w>
যথা ক্রমে</w>
ব ক্
শ াম
আ উ
ঙ্ খ
ব্রিটি শ
জনগণ ের</w>
ফ ার</w>
অর্ ধ
সাহিত্য ে</w>
উপা ত্ত</w>
য ক্ষ্
প ণ্য</w>
য শোর</w>
ুয়ারি ,</w>
কর া
হ েন
কর্ ম</w>
ম নের</w>
197 6</w>
পর্য ন্ত
েছ েন,</w>
সক ্রে
বংশ ের</w>
উদ্দেশ ্য</w>
আ ত্
ুর ে</w>
ফ রি
যুক্ তি</w>
197 4</w>
প্র চার</w>
উদাহর ণ</w>
বিত র্
কি র</w>
ভ াল</w>
গু ণ</w>
196 2</w>
সর্ব প্রথম</w>
202 5</w>
পৃথি বী
নিম্ ন
পৃষ্ঠ া</w>
ভাই রা
জাপ ানের</w>
যথে ষ্ট</w>
ন ু
হ ী</w>
ম জু
শাস ক</w>
লা স</w>
স নের</w>
সু ন্দ
য়া ত</w>
ট ারের</w>
কর ি
ণ িক</w>
বস্ত ুর</w>
থ ানার</w>
পার্ব ত্য</w>
ন্ টার</w>
ভা গের</w>
বিধ ান
ইন্ড িয়া</w>
মেক্স িক
শান্ তি
ণ তা</w>
-- --
ফ ের
প্র দর্শন</w>
নে ট</w>
ে শন</w>
199 3</w>
202 1</w>
ভূমি র</w>
নিষ ি
. )</w>
র শ্
যুক্ত রাজ্যের</w>
হা সান</w>
রসায় ন
ওয়া শিং
হা ঙ্গ
দ ীন</w>
সাম ান্য</w>
ডিগ্র ী</w>
সেন া</w>
সং স্থার</w>
সুল তান</w>
দ িত</w>
আ ন্ত
197 9</w>
পরি বেশ</w>
সূ চনা</w>
রাখ তে</w>
রো নাল
মেল া</w>
নির্ বাহী</w>
সা গরীয়</w>
বর্ধ মান</w>
শ ত</w>
ে স</w>
মি ত্র
রাষ্ট্র ীয়</w>
198 7</w>
সংস্ করণ</w>
ছ ড়ি</w>
স্থি তি
আর্কাই ভ
ড ্র
অভি য
মুক্তি যুদ্ধের</w>
বি কাশ</w>
ডে ভি
সম ত
ই ম
গু প্ত</w>
ইস রায়
নি ষ্
লি শ</w>
অ পর</w>
বী জ
চ ্যান
উইকিপিড িয়ার</w>
অভি যান</w>
জা পানি</w>
19 শ</w>
খা দ
199 5</w>
চার ্য</w>
নদ ী,</w>
প্রশাস ন</w>
তর ঙ্গ
চার্ লস</w>
হা ও
সম ্ব
লি উ
দ হ</w>
সাধার ণ
কলে জে</w>
;!--সং রাপ
পরিমা ণে</w>
শীর্ ষ</w>
স্বা মী</w>
এ ন</w>
ধ িক
হি ম
প্রা প
স ঞ্চ
বৃ ত্
সে ন্ট
ট িকা
উপ স্থাপন</w>
অঙ্গ রাজ্যের</w>
বিশ্লে ষণ</w>
চ্যাম্প িয়
গণি তের</w>
রাজনী তি</w>
2 8
সাল ে।</w>
আ কার</w>
আ মি
দ্ দিন</w>
ক ্যাম
গঞ্ জ,</w>
সাহায ্যে</w>
বি বরণ</w>
মাই ক্রো
প্রকল্প </w>
ক্যাথ লিক</w>
র -
ভ ি</w>
ম ড
ং ,</w>
ক ুল
রে ডিও</w>
এক ত্র
দে ওয়
মান ,</w>
ব গু
আম লে</w>
ক ূল
চিহ্ ন</w>
শুর ুতে</w>
এখান কার</w>
ক লা
র ঙ্গ
195 0</w>
রাখ ে।</w>
স্থ ল</w>
সাল া
শি খ
গ ায়</w>
সাম ু
হ বার</w>
সর্ব শেষ</w>
ট্ টা
স্প ষ্ট</w>
চরি ত্র</w>
পর্তু গি
পা য়</w>
ভা স্
ল ীয়</w>
গ্ ন</w>
সে তু</w>
সু ন্দর
গভর্ন র</w>
সমৃ দ্ধ</w>
সং ঘটিত</w>
ও ই</w>
198 2</w>
198 8</w>
সং বাদ</w>
এ টির</w>
ড লার</w>
অক্ সি
বিবে চিত</w>
র িয়াল</w>
দৃশ ্য
তৈ রী</w>
নভ েম্ব
প্রশিক্ষ ণ</w>
প ছ
মা থা
ঘ রে</w>
জি র</w>
রি শ</w>
খা বার</w>
শতাব্দ ী</w>
ঢা কায়</w>
ভিয়ে ত
সমা ধান</w>
প্রয়োজন ীয়</w>
অনু মতি</w>
6 ,</w>
পর্য ট
195 6</w>
পো র্
প্রকৌশ ল</w>
কর্ম ী</w>
উদ্ব ো
মা ং
বা ই</w>
ক তা</w>
দেশ ীয়</w>
চি ঠ
198 1</w>
সে কে
অনুষ্ঠ ান</w>
0 ,000</w>
অনুর ো
র ীয়</w>
টা কা</w>
অর্থনী তি
সিস্ট েম
রি চার্
আর্থ িক</w>
বৃ ষ্টি
প ণ
দে হ</w>
সং শো
সংরক্ষ ণ</w>
কোম্পান ির</w>
হাইড ্রো
বাড় িতে</w>
ন য়
বিদ্য মান</w>
তৈ রির</w>
কণ্ ঠ
বী র
আল ো</w>
17 7
পঞ্চ ম</w>
ত ম।</w>
স্প েনীয়</w>
প্রাচীন তম</w>
মর্যা দা</w>
দ াম
এ .</w>
ট ু</w>
195 2</w>
অন্তর্ ভু
দর্শ নীয়</w>
বিদ্রো হ</w>
নাগর িক</w>
আনু মানিক</w>
ু ত
ব্য য়</w>
বা ধ্য</w>
ভার্ ম
ধ্বং স</w>
ব্যা কট
আদমশু মারি</w>
বে ড়ে</w>
দশ ক</w>
কিছু টা</w>
স্নাত ক</w>
অ তি</w>
স চি
মাধ্য ম</w>
196 5</w>
কো ষের</w>
হিন্দ ি</w>
সেপ্ট েম্ব
বা তি
স্ট ো
গা ই
টা ই</w>
বা কি</w>
ব্যব সা</w>
মুখ ী</w>
স্টে ম</w>
সা ফল
বেগ ম</w>
মহকু মা</w>
প ী
1 1
মা য়</w>
রা ত</w>
শুর ুর</w>
বল ি</w>
পার্ টির</w>
ি ত,</w>
কর্মকর্ তা</w>
হাসপা তাল
ার ো
জি ত
শ িকার</w>
ক্ষি প্ত</w>
প্র বাসী</w>
নায় ক</w>
ভাস্ কর
দ ।</w>
ন্ দের</w>
জ িয়া</w>
পু ল</w>
কর ছে।</w>
ব্যব সায়
অ তিক্রম</w>
বাজ ার,</w>
াম ার</w>
রা ন</w>
ণ ায়</w>
মে সি</w>
196 3</w>
জনপ্রিয় তা</w>
ছ য়</w>
উপ ত্য
সূ ত্র
গণ ে
198 5</w>
ণ্ ডি
র িয়ার</w>
দিক ে,</w>
পত্র িকা</w>
থেক ে,</w>
ইং ল্যান্ডের</w>
প্রযোজ ক</w>
আফ গ
বর্ ণ</w>
মি থ
আ কৃ
বি য়া</w>
অভ ্যু
বিশেষ ত</w>
েনি স</w>
কঠ িন</w>
ঘ ু
ব ,</w>
জ ্যা
সে ট</w>
করেছিল ,</w>
ফু ল</w>
প্রে স</w>
অর্থনী তির</w>
ান িকভাবে</w>
কুমিল্ লা</w>
ভ ্যা
িক তা</w>
বিষয় ের</w>
জ রি
( 201
জীব নী</w>
নি বেশ</w>
প্রজা তি</w>
ক্যা প্ট
অনু শীল
কংগ্রে স</w>
সবু জ</w>
ছ ি
সম ান
বে গ</w>
গ েছে</w>
সং কল
গ্রহ ণের</w>
কাল ো</w>
ফা ঁ
িক ্যাল</w>
দৃশ ্য</w>
শূ ন্য</w>
মাহ মু
খুঁ জে</w>
সক্রে টি
র ক্
প্রা ই
স্ট া
ত্ত র</w>
197 8</w>
এ গুলি</w>
গায় ক</w>
অবশ ্য</w>
প্র শং
শ্রী লঙ্
2 .
তি ন
মা ঠ
বি নি
মে য়
চ্ ছা
শতা ংশ
ম্ ভ</w>
শ্রে ণি
( যেমন</w>
পরিবর্ত নের</w>
ক ক্স
কৃষ্ ণ
ক্রী ড়া</w>
উপ কূল
য় াল
0 টি</w>
অভি জ্ঞ
অনু বাদ
অংশ ের</w>
পরিষ দের</w>
সি স্টেম</w>
ষ্ট িক
আ নো
উচ্চ ার
ইউরো প</w>
র কম</w>
মধ্য বর্তী</w>
সভা পতি</w>
ফাই নাল
জা পান</w>
হ ্য
ু ।</w>
6 টি</w>
গ েল
ক ো</w>
নির্ ণ
শ্র মিক</w>
মে ডেল</w>
ব্যবহার কার
নির্মা ণের</w>
প্র শান্ত</w>
ঙ ে</w>
চ ,</w>
পা ক
ন ন্দ
ন্দ া
ধ ানের</w>
নে পাল
টা ঙ্গ
গ্রন্ থে</w>
গা ছ</w>
পুরা তন</w>
পাখ ি</w>
পেশা দার</w>
কা উ
প্র কার</w>
বে শন</w>
থ িয়ে
অ তী
দূ র</w>
স্কুল ে</w>
র িত</w>
জ ান</w>
দ ো</w>
; (</w>
কার ্যাল
যোগ ে</w>
স্বাক্ষ র</w>
বিচ্ছি ন্ন</w>
ঢ় </w>
বি শ</w>
র ক</w>
অনু ষ
লি গ</w>
সাম নে</w>
196 1</w>
সং গঠ
195 4</w>
পদার্থ ের</w>
প্রতিনি ধি</w>
অব লম্ব
ঘন ত্ব</w>
আফগ ানি
অল্প </w>
প েল
মি ল</w>
সা দা</w>
লাই ট</w>
প্র কৃতি</w>
চিন্ তা
ই থিও
উল্লেখযোগ ্য।</w>
মন্ত ব্য</w>
ইথিও প
থ ি</w>
শ িক
উ ত্
ং ক</w>
না কে</w>
মে ই
রে জি
ডি সি
মহা কা
উৎ সব
সার ণ</w>
195 5</w>
বিজ য়</w>
ত্রি পুর
দার্শ নিক
ইয় র্ক</w>
াম ূলক</w>
বিশ্লে ষ
জাতীয় তাবাদী</w>
না ই</w>
পা ঞ্
গ্রহ ের</w>
জেলা ,</w>
খ্যা ন</w>
193 0</w>
সভ ্য
আবিষ্ কৃত</w>
নাম েও</w>
সার্ব ভৌ
আল্লা হর</w>
অভ্যু ত্থ
ণ াল
সা ব
ধর্ মা
অভি যোগ</w>
িক ম্প
ইউনিয় ন,</w>
পা ওয়ার</w>
যোগ দান</w>
তাল িকা
চী না</w>
কবি ।</w>
অন্য তম।</w>
সাগ রে</w>
সংজ্ঞ ায়িত</w>
পুর ে</w>
নী তির</w>
196 6</w>
196 4</w>
ভু ল</w>
বার্ লি
বোর্ ড</w>
দ ুর
ত্র া
সর ে</w>
বিদ্যাল য়।</w>
ফো ন</w>
শাস্ ত্র
নক শা</w>
গ তভাবে</w>
ব্রাহ্ম ণ
একত্র িত</w>
ক্যাপ্ট েন</w>
চূ ড়া
ভে ঙে</w>
প ,</w>
ক ত</w>
উপ -
জ িল</w>
196 8</w>
মধ্য েই</w>
সূর ্যের</w>
কার্ বন</w>
ব্র হ্ম
অস্ তিত্ব</w>
প্রতি রোধ</w>
প্রোগ্রাম িং</w>
পরিষে বা</w>
ভূম িকম্প
স ্যা
খ াল</w>
প্ তি</w>
3 2</w>
র ন্ধ
মাই ল</w>
ঈশ্ব রের</w>
2 9
দেখ ে</w>
া ংশ</w>
মূল ্য</w>
সং ক্রম
সুর কার</w>
নেতৃ ত্ব</w>
ন শীল</w>
বিমান বন্দ
র সা
আ জা
ন্ না</w>
অ ষ্ট
3 5</w>
পু ত্র
স্ব তন্ত্র</w>
বর্ণ িত</w>
হু মায়
সংরক্ষ িত</w>
21 শ</w>
ম ক্
বি কা
আস ার</w>
এস েছে</w>
ন ম্বর</w>
হার িয়ে</w>
শৈ ল
মুহাম্ মাদের</w>
সঙ্গীত শিল্পী</w>
অধ্য য়ন</w>
সম্মান না</w>
ফেড ারে
ইন্দো নে
দ ক্ষ
সা থে
ফ ্রি
ঞ্ জন</w>
কাল ী
প্র বেশ
ধ নী</w>
আ হ্
আবি র্
ডেম ো
মারা দো
বিবি সি</w>
বিলু প্ত</w>
সমন্ব য়ে</w>
পতা কা</w>
ট ।</w>
নিয় র</w>
ক্ লো
আল -
সী ম</w>
দ্বী পে</w>
আন ন্দ</w>
দ ্যু
ডা ঙ্গা</w>
লাই ব্রে
ম দ
আ য়</w>
ঘ ণ্
আফ্র িকা</w>
কন ্যা</w>
দূর ত্ব</w>
চাহি দা</w>
মন্ত্র ণাল
সং কে
ক্ষ িত</w>
লি পি
পৃথি বী</w>
; '''</w>
পা শের</w>
লী গের</w>
পৌর সভা
আবিষ্ কারের</w>
স্মৃ তি</w>
নিরপেক্ষ </w>
আটলান্ট িক</w>
2 7
বে তার</w>
তুল নাম
স্টে ট</w>
আ পেক্ষ
শহর টি</w>
সম্প্রদা য়</w>
জ্যাম াই
ফ জ
8 টি</w>
ফ িক</w>
য় নের</w>
অব ্যা
শ নে</w>
জি ন</w>
197 7</w>
0 %</w>
202 3</w>
চিত্র শিল্পী</w>
রচ না
বিশ্বকা পের</w>
ওয়ার্ ল্ড</w>
ফলা ফল</w>
ওবা মা</w>
নিষি দ্ধ</w>
হা উ
মি ত্র</w>
প লি
নে ল</w>
ন্ সি</w>
চা প</w>
মূল ্য
প্রশাস ক</w>
মহ ারা
গ্রন্ থা
জন ্য,</w>
উন্ মুক্ত</w>
কিলোমি টার।</w>
শ্রেণ ীর</w>
প্রস্ত ুত</w>
রূপা ন্তরিত</w>
জাদু ঘর</w>
ঝ ু
হ লো
ষ্ ণ
আস া</w>
কমিউনি স্ট</w>
প েন
লে ক্
স্ত রের</w>
চে ক</w>
ত িকে</w>
জ িয়া
দর্শ নের</w>
মাঝ ামা
ল্যা পট
ই ন্স
প্রথম বারের</w>
মাই কেল</w>
জামাল পুর</w>
আনুষ্ঠ ানিকভাবে</w>
মাঝামা ঝ
ফ ের</w>
; ''
ন )</w>
ত ুর</w>
উপন্যা স
ত )</w>
প্রতিষ্ঠ ানের</w>
প্র ার
শ স্ত্র</w>
শ ার</w>
লা গ
াল ,</w>
ব েন।</w>
দেশ টি</w>
হ েম
কো য়া
লেখ ক,</w>
195 8</w>
লক্ষ ্যে</w>
বিক্র ি</w>
সত্ত্ বেও</w>
স্প ্যানি
ঙ্গ াল
কান ে
বিশেষ ভাবে</w>
সূ চক</w>
জাতীয় তা</w>
য মুনা</w>
প ণ্ডি
ল ব
নি উই
যুক্ তি
পাল িত</w>
ু দ্ধ</w>
যে সব</w>
েনি ।</w>
চরি ত্রে</w>
বৌ দ্ধ
মুসল মান
নিউই য়
ক্র িয়
প িক্
ভাষ ী</w>
জী ব</w>
শ িয়ার</w>
ত েল</w>
পর্যবেক্ষ ণ</w>
ফা উন্ড
রন্ধ ন
ব ুল
ব নের</w>
প ির</w>
প্রতিষ্ঠ ান
বি নো
বাদ ে</w>
196 7</w>
আগ স্ট
হিসা ব</w>
স্ক ট
ম্ মদ</w>
নি ষ্ঠ</w>
জন্ মের</w>
তাল িকায়</w>
দক্ষিণ- পূর্ব</w>
নির্ধার িত</w>
া প
সা ,</w>
উ পর
পর গ
স্থ ির</w>
মে ,</w>
হ ের
বাড় িয়া</w>
বিশ্ববিদ্যাল য়,</w>
পদ্ধ তির</w>
গ ঙ্গা</w>
যা পন</w>
ানু সারে</w>
4 ,</w>
র ক্ত</w>
194 9</w>
বা সি
ক্রী ড়া
দল ীয়</w>
সংগ্রহ ের-তারিখ</w>
চ্যাম্পিয় ন
চূড়া ন্ত</w>
প্রার ম্ভ
সা ত</w>
কা ট
আ জি
অধ ্যা
ব্যব স্থা
সংস্ কার</w>
বিজ য়
হাম ি
র্ জা</w>
খেলোয়াড় ।</w>
রিচার্ ড</w>
হ য
স্থাপ নের</w>
খ্রি ষ্ট
তত্ ত্
দেখ ানো</w>
রাজধ ান
ল্যান্ড ে</w>
মুক্তিযোদ্ধ া</w>
গাছ ের</w>
অবশ ্যই</w>
টি ই</w>
জী বা
কে রা</w>
উৎ সা
বন্ধ ন</w>
ক্ষে প</w>
বিশ্ বাস
নিক ো
থ ানা
আইন স্ট
চট্ট গ্রামের</w>
প্রতিনি ধ
অ পর
দ ারি
অভিনে তা,</w>
জাহা ঙ্গ
টিভ ি</w>
পিক্ সেল</w>
ই ল
র িক
ক মে</w>
অনু প
লেখ ার</w>
পে তে</w>
দায় ি
অঙ্গ রাজ্য</w>
অঞ্চল টি</w>
উন্ নীত</w>
আনুষ্ঠ ানিক</w>
ভ ী
হ িক</w>
হা জ
ব সু
স্থ ায়</w>
( 194
কর া,</w>
সত্য জিৎ</w>
পাঞ্ জা
ে ;</w>
ই ট</w>
েল ,</w>
আ দা
কু ষ্ট
পরিমা প</w>
কর্পোরে শন</w>
সাম্প্র তিক</w>
দপ্ত র</w>
;!-- হালি
হয রত</w>
তত্ত্ বাব
;!--হালি ম--</w>
9 0</w>
ড় ির</w>
কল ্যা
স েন,</w>
লা খ</w>
ক্ষম তা
কমি টি</w>
ভূমি তে</w>
কূ ট
গণ তান্ত্রিক</w>
ঠা কুর</w>
সংখ্যা গরি
সামু দ্র
সং ক্ষিপ্ত</w>
% )</w>
সামুদ্র িক</w>
ধ ূ
চাল িয়ে</w>
হ ত্যা
ডা ক
ণ্ড ের</w>
আলো র</w>
কৃষ্ ণের</w>
তাপ মাত্র
পাহা ড়
আদি বাসী</w>
সাময় িক</w>
সংশ্ লি
স্ ফ
কি না</w>
8 0</w>
মান চিত্র</w>
ঘট নার</w>
চার ী</w>
হো ক,</w>
ষ ষ্ঠ</w>
প ত্তি</w>
ক্ষম তার</w>
পদার্থ বিজ্ঞান</w>
এশ ীয়</w>
ইন্ড িয়ান</w>
মনো নীত</w>
কি শোর</w>
উদ্ভাব ন</w>
প্রতি বেদন</w>
স শস্ত্র</w>
মি ং
ত রে</w>
194 0</w>
সেন ের</w>
ইউ নাই
প্র মাণ
বুঝ তে</w>
হত্য ার</w>
ঢাকা ,</w>
বি পুল</w>
আ রা
সি স</w>
পার েন</w>
পে য়ে</w>
বাহ ের</w>
ন কারী</w>
কবি ,</w>
দেব তা</w>
রাশ িয়ার</w>
ম েনে</w>
মুসল মান</w>
দা খিল</w>
ড ু
ই ,</w>
োগ ের</w>
20 0</w>
শ্র ী</w>
সি দ্ধ</w>
হ্ </w>
পক্ষ ের</w>
কার্ ল</w>
পাকিস্ত ানে</w>
চাঁ দ</w>
কৌশ ল</w>
কুরআ ন</w>
ভ ট্টা
পরামর্ শ</w>
মাঝামাঝ ি</w>
ড স</w>
কোয়া ন্ট
সি ল</w>
রাজ ার</w>
ব্ র</w>
ূ প</w>
যে কোনো</w>
ইউরো পে</w>
এক বার</w>
কল্প </w>
লন্ড ন</w>
গুর ু</w>
বায়ু মণ্ড
প ন্থ
ডেভি ড</w>
বৈ দ্যু
র ম
পূর্ ণ
শ ,</w>
র ব</w>
নিয় ম</w>
মাল িক
আব দ্ধ</w>
অফি স</w>
সে খান
মূর্ তি</w>
আই রিশ</w>
অনু সন্ধান</w>
না থ
জ্ঞ া
পি তার</w>
খা ঁ
ঞ্চ লের</w>
মা জার</w>
সে গুলো</w>
ঘো ষ</w>
গ্রে ট</w>
র ক্ত
ফুটবল ার।</w>
ফাইনাল ে</w>
আ খ
ক্র িয়া</w>
গো লে</w>
ত রু
194 6</w>
মিল ি
এক টি।</w>
চ ্যু
ত হ
িল া
ব না</w>
ংশ ে</w>
নো ল
নিক ট
নির্বাচ নের</w>
উৎপাদ িত</w>
পরিচি ত,</w>
পদার্থ বিজ্ঞানী</w>
মিড িয়া</w>
ক্ষ ণ</w>
লি না
মা টির</w>
পো শা
সাই ড</w>
গ েলে</w>
কিং বদ
স্থানা ন্তরিত</w>
মা জ
জন ্য
শ ঙ্
মা য়ের</w>
গণ না</w>
কল ম্
উ চিত</w>
মহ ান</w>
কর বে।</w>
মাদ ার
কর্ম জীবন</w>
ধ্ব নি</w>
মৌসু মে</w>
স ত
না গা
আস লে</w>
সদস ্য।</w>
স্ত ফা</w>
ছবি র</w>
ব্যবহার কারী</w>
ব্ল ক</w>
ইর ানের</w>
হাসপা তাল</w>
তি নি
র পুর</w>
গু ণ
আব হা
পর্ব ত</w>
পরমাণ ু</w>
ছবি তে</w>
সঙ্গী তের</w>
আ </w>
2 3
ফ র্
িল ,</w>
দ ত্ত
এ ভাবে</w>
অ ন্ধ
খ্যা ত।</w>
্যা ন্ট</w>
প্রকাশ ক</w>
19 20</w>
অ গ্
ভ ালো
উপাদ ান
বা চক</w>
শীর্ ষ
ধ ান
পু ঁ
উৎ স
আই নের</w>
মত াম
আ সেন</w>
মাই ল
সং গঠিত</w>
যা ত্রী</w>
বস্ত ু
ত বে,</w>
তি ব্ব
এক ে
ভ েল
ে )</w>
জ ুল
ভ িক্
ন্ড ের</w>
পদ ী</w>
বৃ ত্তি</w>
অর্থনী তিতে</w>
জমি র</w>
সংঘ র্
বার্ সেল
বিশ্ব ব্যাপী</w>
প্রতিক্র িয়া</w>
প্রভাব শালী</w>
বার্সেল ো
) ;</w>
ভ র</w>
রা তে</w>
ণ ীয়</w>
লে ই</w>
্যাল ো
সে ফ</w>
নাট ্য</w>
সদ র,</w>
আন্দোল নে</w>
তি নি।</w>
বই য়ের</w>
গ ীত
থাক লেও</w>
আচর ণ</w>
প্রতিনিধ িত্ব</w>
সা হ
সে ,</w>
সে স</w>
সি ,</w>
লি মি
থে কে
হ াম</w>
ট িকা</w>
শ্চ া
যেম ন
জু লাই
বল ম্ব
তিক ভাবে</w>
তো লা</w>
কৃ ত্রি
ধা তু</w>
ইউর েন
চিকিৎস ক</w>
আদাল ত</w>
সম্ব ন্ধ
য ত
য়ে ত</w>
স্ পে
সম য়,</w>
ম্ পা
মহ ান
পদ্ধ তিতে</w>
দ ণ্ড</w>
ম্যা চে</w>
উভ য়
আ কারের</w>
প্রের ণ</w>
''' ইউনিয়ন
প্রাপ ক</w>
'''ইউনিয়ন '''</w>
ত ঃ
ড ান
ম ৎ
পা ই</w>
হা দি
পর ে,</w>
ি রা</w>
গো ল্
ম ারের</w>
5 00</w>
স িয়ে
গো পাল
1 -এ</w>
এন এ</w>
উপ মহাদেশের</w>
নিউট্র ন</w>
পড়া শোনা</w>
প্রারম্ভ িক</w>
কোয়ান্ট াম</w>
তী ব্র</w>
ক ল</w>
হয় ;</w>
ওয় ের</w>
ডি জা
শাস নাম
ব্য তী
ফু ট</w>
স ত্য</w>
বিজ্ঞ ান,</w>
চিকিৎ সা
অস্ ত্র</w>
ধ্বং স
প্র দানের</w>
বিপর ীত</w>
রঙ ের</w>
গান্ধ ী</w>
কো য়
ব াল</w>
খ ানের</w>
স্ বল
িয়া তে</w>
মের ু</w>
প্রতি রোধ
ভা বে,</w>
রহ মানের</w>
পট ু
নবা ব</w>
সে ন্টার</w>
আহ্ বান</w>
স্বল ্প
খ া</w>
উ ন</w>
7 টি</w>
ম ুর
আ লি
গ তির</w>
5 %</w>
স িকি
পাঠ ানো</w>
বৈশিষ্ট ্য
আর্জেন্টি না</w>
প্রজাতন্ত্র ের</w>
অনুরো ধ</w>
কানে টিকা
টেক নোল
চ ু</w>
প ্য
েছিল ,</w>
ন্ড ো
কর্ম কা
চৌধুর ী,</w>
বাজ ারে</w>
সৃ ষ্ট</w>
রোগ ের</w>
রা স্তা</w>
2 6
ম তা
কি মি
শ ুর</w>
ডি জি
পা ণ্ড
কেন্দ্র ের</w>
ইতাল ির</w>
দিয় েছিলেন।</w>
ঐতিহা স
বা উল</w>
আকর্ ষণ</w>
উ জ্
নে য়া</w>
পা তের</w>
যেম ন,</w>
করেছ েন,</w>
তাঁ দের</w>
রেল পথ</w>
ভো ট</w>
রাশ িয়ান</w>
প িয়
সে টি</w>
দ লে</w>
য় াল</w>
ডি ং</w>
195 3</w>
খ্যা তি</w>
ম ধু
( বর্তমান</w>
স্প েনের</w>
সম্ভাব না</w>
ভূ ষিত</w>
আন্ত ঃ
প্রত্যা খ্যান</w>
ে শ
খ র
র টি</w>
বা ষ্
ার্ ন</w>
অ সু
য়ে ড</w>
সূ চ
আগ ের</w>
নির্বাচ নী</w>
সম্পূর্ ণ
িয়াম ,</w>
সমস ্যা
হ ,</w>
প্র ী
দ িল
মু র্
ত্য ের</w>
195 7</w>
পা তায়</w>
পরিচি তি</w>
উদ্ ভূত</w>
এখ নো</w>
কো র্ট</w>
খ নিজ</w>
নিবেশ িক</w>
বগু ড়া</w>
মা কে</w>
স্প্যানি শ</w>
ঞ্চ লে</w>
194 1</w>
কাম াল</w>
স্থাপ ত্য</w>
ম্যান ে
রাষ্ট্রপ তি।</w>
কয়েক জন</w>
কারখ ানা</w>
দৃষ্টিভ ঙ্গি</w>
বক্ তৃ
পর্তুগি জ</w>
রসা য়ন</w>
ঝ ি
প্রা ন্ত
কো থা
ম িয়া</w>
টি ভ</w>
195 9</w>
পরিচাল ক।</w>
আ ধ্যা
ভাগ ই</w>
লাভ ের</w>
মুসলিম দের</w>
র ান
আ ঘাত</w>
ান দের</w>
য েন</w>
ল ব্
কে ট</w>
স্ব য়
নিবন্ধ ের</w>
নি দর্শন</w>
উপ স্থিতি</w>
বাতি ল</w>
সংশ্লি ষ্ট</w>
অব্যা হত</w>
ফ ট
ক ত
. ;</w>
ম ্য
রা উ
জন া</w>
জা গ
প্র েম
হ স্ত
ফ লের</w>
চ ারের</w>
194 2</w>
সংস্ কর
প্রকাশ ের</w>
কৃষ ি
অনুষ্ঠ ানে</w>
বার্ লিন</w>
আও তা
বঙ্গ োপ
বিত র্ক</w>
শাল া</w>
বঙ্গ বন্ধু</w>
ঝ া
প লা
জ লা
শ িত</w>
. ''</w>
োগ ে</w>
ম রি
স্ লো
আ ব্দ
মা ংশ</w>
আল ম</w>
সম্প্র চার</w>
ব্যাং কের</w>
জয় লাভ</w>
প্র দত্ত</w>
সহযোগি তা</w>
না ঞ্চল</w>
প্রব ণতা</w>
ধ র</w>
কক্স বাজার</w>
স্ত র</w>
বা ন্ধ
আ ংশ
;!-- গা
দে য়,</w>
194 4</w>
প্রা বন্ধ
17 5
চিত্র ের</w>
সহ জ</w>
প্রতিযোগি তা</w>
ম মিন
বিদেশ ী</w>
বা হা
র ো</w>
ক ঙ্গ
আ না</w>
এ লি
নে য়</w>
শাস ন
করেছ ে,</w>
পার্ শ্ব
দে হের</w>
পেয় েছে।</w>
অস্ট্রেল ীয়</w>
জগ তের</w>
প্রো টিন</w>
জায় গা</w>
চলা চল</w>
করু ন।</w>
জায় গায়</w>
বৈদ্যু তিক</w>
অ ল
ট ল</w>
মা টি</w>
ট িল
কার ি
রো জ
গো লের</w>
চু ক্তি
আলো ক
পে শা</w>
লা তিন</w>
তে জ
খো লা</w>
উ পরের</w>
পূ জা</w>
অব শেষে</w>
নি চের</w>
সংজ্ঞ া</w>
পছ ন্দ</w>
উপ নিবেশ</w>
কো চ
193 9</w>
হ ীন</w>
মু ম্ব
যুক্ত রাজ্য</w>
শৈ শ
চাঁ দের</w>
গ্রন্ থের</w>
স্বাস্থ ্য
উপকূল ীয়</w>
;!-- মমিন
;!--মমিন --</w>
ক কে</w>
ট নের</w>
চে ত
আ গু
উন্ন তি</w>
প্রতি ফল
19 18</w>
আ লেক
কম প্লে
ইং ল্যান্ড</w>
সুন্দ র</w>
উদ্ দীন</w>
3 য়</w>
কর বে</w>
শ না
খ্রিস্ট ীয়</w>
এ সময়</w>
ভে দ</w>
এস েছে।</w>
লি পি</w>
ক্লা বের</w>
তর ঙ্গ</w>
প্রচল ন</w>
কুরআ নের</w>
ট েনে
গ্রীষ্ম কালীন</w>
ব্যব ধানে</w>
প্র সারিত</w>
উদ্বো ধন</w>
শাস্ত্র ীয়</w>
ম র্
বা ম
উ ষ্
ন ক্ষ
কার ক</w>
জে ই</w>
আ সাম
ব ংশ</w>
দে বী
জ ারি</w>
ই চ্ছ
লু ই
সম্ মুখ
স্ত ন্য
সিদ্ধ া
ছিল ো।</w>
জন বহুল</w>
প্রত্ন তাত্ত্বিক</w>
বিদ্য মান।</w>
রপ্ত ানি</w>
8 ,</w>
কর্ ণ
জ ক</w>
হু গ
হি মাল
অংশ ।</w>
সং ল
উঠ ে</w>
পত্র িকার</w>
আক্রম ণের</w>
ভাই স</w>
ট মাস</w>
্যান্ড ের</w>
মঞ্চ </w>
প্রতি দ্বন্
0 ,</w>
বি ক
মো হ
বার্ তা</w>
মাল য়ে
লু ল</w>
অক্ স
পিড িয়া</w>
বরা বর</w>
সৌ দি</w>
মহা সাগর</w>
রি পাবল
ফেড ারেল</w>
চ্যান েল</w>
; র</w>
পন্থ ী</w>
ক ন</w>
ল র্
িকা ,</w>
কেন্দ্র ে</w>
যা বে।</w>
স্ক ো</w>
সদস্য দের</w>
চট্টোপাধ্যা য়</w>
ঘ রের</w>
স্তন্য পা
ত ে,</w>
আল ু</w>
পরিচাল ক,</w>
একা ডে
স্প ষ্ট
থা কায়</w>
সৈ ন্য</w>
সমস ্যার</w>
সাঁ ও
পরি বেশন</w>
কৃত্রি ম</w>
;!--গা শার
;!--গাশার --</w>
3 .
স ান
বি কি
বে লা</w>
দা স
দু ঃ
ব্যা ট
লো কের</w>
-- --</w>
আল্ লাহ</w>
প্র বাহ</w>
সম্ভাব ্য</w>
ছ য়টি</w>
কাঁ ঠ
ক্যাম ে
য় ো
ষ্ ক</w>
বিষয় টি</w>
হা তি
জান তে</w>
পড় ার</w>
শ্রেণ ী
পূর্ ণ।</w>
অব দানের</w>
আর্জেন্টি নার</w>
রাম কৃষ্ণ</w>
বিষয় বস্তু</w>
পৃথিবী তে</w>
আলেক জা
– 0</w>
স প্
সর িয়ে</w>
সম্ মান</w>
অনে কে</w>
আ শা</w>
ছ েলে</w>
বিপ্ল ব</w>
উত্তর- পূর্ব</w>
ক্যালিফোর্ নিয়া</w>
সম ষ্টি</w>
নীতি মালা</w>
শৃ ঙ্খ
আ জ</w>
যা ই
ক্র মা
তা প</w>
ন্ড া</w>
ন্ড ার
বো ল
ধর্ মে</w>
ঞ্ জি</w>
মিল ে</w>
নার ী
ঔপন্যা স
সিরাজ গঞ্জ</w>
তা দেরকে</w>
দ্রা ঘি
কিশো রগঞ্জ</w>
আও রঙ্গ
নাম ানুসারে</w>
আওরঙ্গ জে
3 ,</w>
ঋ ণ</w>
জন ,</w>
না দ
বো ন</w>
ন্ট ে</w>
193 6</w>
বন্দ ী</w>
উপন্যা সের</w>
প্রযুক্ তির</w>
পূর্ব বর্তী</w>
পঞ্চ া
খা ঁ</w>
শার ী
ন বিংশ</w>
বৃষ্টি পাত</w>
ফস ল</w>
হাইড্রো জেন</w>
আফগানি স্ত
রন্ধন শৈলী</w>
মুহ ম্মদ</w>
শারী রিক</w>
গ ারে</w>
বাই রের</w>
প্রতি রক্ষা</w>
মুদ্র া</w>
ঘূর্ ণি
ডিজি টাল</w>
ন গ
ম র</w>
9 টি</w>
এক ই
কা গ
্যাল ে
যুক্ ত।</w>
আল ি</w>
ব্রি জ</w>
জ মা</w>
সা হে
প্রাথ ম
ক্ষে ত্রের</w>
মো ঃ</w>
পর্তু গ
পরমাণ ুর</w>
ক্যালিফোর্ নিয়ার</w>
দ ুল্লাহ</w>
প্র জন
শ ত্র
ত দের</w>
চে য়
তৈ রি
2 -এ</w>
চু য়া
প্রা প্ত
স্ব রূপ</w>
রাশ িয়া</w>
নৃ ত্য</w>
জাতিসংঘ </w>
প্রশ্ ন</w>
নো য়াখালী</w>
হেন রি</w>
অষ্ট ম</w>
য ান
স্থ ল
শে খ
জ য়ী</w>
ট ানা</w>
ক িয়ে
গবেষ ক</w>
চট্ট গ্রাম
সহ কারী</w>
দুর্ বল</w>
ধি প
19 19</w>
সুল ত
জ্ব াল
লম্ব া</w>
কর বেন</w>
কর্তৃ পক্ষ</w>
উন্নয় নের</w>
ওল ানা</w>
সভ্য তার</w>
অ সীম</w>
মা ,</w>
ক্ষ তি
বা ণী</w>
ন দের</w>
লি ও
ার ো</w>
3 3</w>
উ য়ে
ড় াই
বন্ধ ু
প তন</w>
শব্দ টির</w>
ফেল া</w>
বিপ্ল বী
পত্র িকায়</w>
এ গিয়ে</w>
কর লেও</w>
বৈ দেশিক</w>
সেক্ট র-
সালা হু
ইউনাই টেড</w>
ধর্মা বলম্ব
মধ্য ে,</w>
লর্ ড</w>
6 5</w>
সু নাম
ঞ্ জেল
জ লের</w>
অ্যা সি
সী মা</w>
পশ্চি মা</w>
কৃষ ক</w>
পাঠ </w>
না থের</w>
মহা সাগরের</w>
ইঞ্জি নিয়
জা হান</w>
লক্ষ্ মী
তুর্ কি</w>
হে মিং
ঘূর্ণি ঝ
; (
ক ৈ
সে ই
ষ্ কার</w>
ড ্রা
দ াম</w>
জ্ঞ ানের</w>
আ শে
ন্ড ্র
বু ক</w>
পুর নো</w>
খ ান,</w>
গ্রে ফ
বি এন
এ য়ার
ভি ন্ন
অক্সি জেন</w>
ঔপ নিবেশিক</w>
- আ
ত দ
ধ ার</w>
ক্ ট</w>
ম হি
ক েন</w>
জ োর</w>
প্র বন্ধ
সম্পর্ কের</w>
এম .</w>
কম ।</w>
বিস্ত ৃ
জন গণ</w>
ভি টাম
সম সাময়িক</w>
উয়ে ফা</w>
জ র
ল ট</w>
তা ব</w>
পা শ</w>
ছ েল
হি ং
বে ষ্ট
প য়ে
ারি ং</w>
হ চ্ছ
192 1</w>
ট ারে</w>
নিজে ই</w>
লন্ড নের</w>
সা প্তা
ট েনিস</w>
হ ৃ
ড ন</w>
না য়ে
উত্ত ম</w>
ন িকা
মৌ ল</w>
ী ভূত</w>
ঁচ ে</w>
ম ঞ্জ
নিউ জিল
ভূ খণ্ড
বাসী দের</w>
ঠাকুর গাঁও</w>
সো সিয়ে
বা ঘ
তা তে</w>
ম কে
ন্ সের</w>
উ সের</w>
বু দা
শা খা
পাল িয়ে</w>
হ ারে</w>
ব্যা করণ</w>
মুজি ব</w>
ুয়ারি তে</w>
হাসি না</w>
ঝু ঁ
জিয়া উর</w>
পটু য়াখালী</w>
ট র
সপ্ তম</w>
তা ৎ
ই লি
র্ স</w>
থা ই
সু ল</w>
এক সাথে</w>
দ্ব ৈ
সং যো
পর্যা য়ের</w>
বাগ ের
বা ধা</w>
ঈ শ্বর</w>
অক্ষ াংশ</w>
আধ্যা ত্
2 4
থা কা
শ ন,</w>
রা য়ের</w>
হ ন,</w>
গু প্
বো মা</w>
পূর্ বের</w>
দি বস
নি জে</w>
দে য়ার</w>
বে সামরিক</w>
প্রো গ্রাম</w>
191 1</w>
উ ঁচ
কমি টির</w>
দ্বি তীয়
শহর ।</w>
ক্য ার
ক ্যাম্প
নে দার
চতু র্
যন্ত্র ের</w>
জৈ ব</w>
অপারে টিং</w>
পরি বারে</w>
নারায় ণ
স্ত ম্ভ</w>
বি কল্প</w>
মো স্তফা</w>
ফজ লুল</w>
আ ধিপ
ক য়
কা য়
টি শ</w>
ট ্রি
শি ষ
থাক লে</w>
ংশ ের</w>
মা য়া</w>
স ফল
হ তো</w>
বা ন্দর
চাঁ দপুর</w>
তোল ে।</w>
বিরোধ িতা</w>
নেটওয়ার্ ক</w>
গবেষ ণায়</w>
বুদা পে
ও প
নি ঃ
সু ন্
গ েম
অব শি
মে য়ে
ওয় াই
পো ষ
( 193
193 8</w>
চৌ ম্ব
স্বী কৃত</w>
চু ক্তির</w>
টি টিউ
ামা টি</w>
ফ্ লো
শ্ব রী</w>
সম্ভব ।</w>
কংগ্রে সের</w>
সমালো চক</w>
ইন্টার ন্যাশনাল</w>
অপারে শন</w>
মেট্র োপ
রশ্ মি</w>
কুষ্ট িয়া</w>
সাপ্তা হিক</w>
মেট্রোপ লি
ক্র ্যা
পা তার</w>
স্ত রে</w>
বা বার</w>
আ ইস
রা স্তা
জেলা ।</w>
বিশ্ববিদ্যাল য়
কেন্দ্র ।</w>
পদ্ধ তি
জাম ে</w>
সাত ক্ষ
বিজ্ঞান ীরা</w>
রাজনীতি বিদ,</w>
আর্ম স্ট্র
ত্রিভু জের</w>
ইন্টার নেট</w>
ওয়াশিং টন</w>
ভ ন</w>
চ িল
পর স্
ফ েন
প িত</w>
রে ই</w>
; 2</w>
3 6</w>
গো লা
3 8</w>
ত বু
3 00</w>
193 2</w>
সমা জে</w>
192 9</w>
বেশি র</w>
জাম ান</w>
তন্ত্র ের</w>
ফে সর</w>
পাহা ড়</w>
গ্রহণ কারী</w>
অগ্র সর</w>
চা করি</w>
অর্থনীতি বিদ</w>
সাফল ্য</w>
নিউইয় র্ক</w>
উঁচ ু</w>
উপ লব্
সংল গ্ন</w>
বি ষ্
ক )</w>
ব দ্ধ
গো য়ে
মধ্য প্রাচ
বৈ ঠ
ব্যক্তি ত্ব
সৃষ্ টির</w>
স্কুল ের</w>
তর ণ</w>
ড়া ও,</w>
দিল্ লি</w>
খ্রিস্ট পূর্বা
ধার ণার</w>
পিছ ু</w>
ত খন
উচ্চার ণ</w>
ব্যতী ত</w>
4 5</w>
গু দা
'' দি</w>
প্র তিক
ক্ষম তায়</w>
ভ ্যান</w>
উপা স
সোসাই টির</w>
অনুমো দন</w>
ইন্স টিটিউ
শ ী</w>
না গ
নাম া</w>
র িয়ে</w>
আ গ্রহ
195 1</w>
যে গুলো</w>
নদ ী।</w>
কর্ম সূ
192 2</w>
বি য়ার</w>
;!--বা এপ্র
মসজি দের</w>
চরি ত্র
ইউনি ট</w>
প্র বন্ধ</w>
রূপা ন্তর</w>
বয় সী</w>
উ ত্থ
ই লেক্
আধ্যাত্ মিক</w>
ভা ব্যা
গ ল
( 1
চ াম
বাংলাদেশ )</w>
19 00</w>
193 4</w>
আস ছে।</w>
উৎপাদ নের</w>
সম্ মত</w>
সংস দের</w>
ত ামা
অ সম্পূর্ণ</w>
অনু পাত</w>
প্র চেষ্টা</w>
ব ক্ত
বল েছেন</w>
সুই জার
কাব্য ের</w>
নিষ ে
উ চিত।</w>
রসায়ন বিদ</w>
বি র</w>
ঙ্গ া
োগ ্
যা বে</w>
ট েম
ব সে</w>
194 3</w>
চ্ছ </w>
পরীক্ষ ায়</w>
হ বে,</w>
সংবিধ ানের</w>
অব দান
ট্রে ন</w>
নাট্য কার।</w>
ষ ী</w>
াল া
ম তি
ম ল</w>
প েছ
বর্ ষ</w>
সু ভাষ
অ ত্যা
বৃ ত্ত
হল ু
যে কোন</w>
শিক্ষা বিদ</w>
বিবে কান
অ্যাল বাম</w>
প্রকৃ ত
কর্ নেল</w>
যাই হোক,</w>
শ ার্
ক্ষ তি</w>
চ ব্
রো মান
অবস্থ ান
চি ত্রে</w>
ইসলাম িক</w>
শ্ বে
মুখ ো
বদ লে</w>
মাম লা</w>
ছোট গল্প
ভিয়েন া</w>
বাহিনী কে</w>
বৃত্ তা
নির্ণ য়</w>
ত্রিপুর া</w>
উভয় ই</w>
কোয় ার্
জাগ তিক</w>
উজ্ জ্ব
ক স
9 ,</w>
পা ট
রা ট</w>
স্ট ্রে
স্ কে
প দা
মার্ ক</w>
চে ষ্ট
আগ েই</w>
জো ড়া</w>
ধ ান,</w>
ট ার,</w>
190 8</w>
ব্যক্তি দের</w>
কার্য কর
হয় ৷</w>
জাতি গত</w>
উইকিপিড িয়ায়</w>
অস্ তি
স্ নায়
প্রত্য েক</w>
বিচার পতি</w>
ক্রা ন্ত
বয় স্ক</w>
প ঞ্জি</w>
প্রাথম িকভাবে</w>
ক্র ু
রি ন</w>
জন ীন</w>
আয় ার
মাধ্য ম
বাস া</w>
193 5</w>
উপ যুক্ত</w>
193 1</w>
বঙ্গ </w>
ভব নের</w>
আহ ত</w>
কবি তার</w>
191 2</w>
সৌ ন্দর
দে হে</w>
মিউ জ
প্র সাদ</w>
ব্যব স্থায়</w>
স্তন্যপা য়ী</w>
ঔ ষ
ু ক</w>
ন দ</w>
ধ ুল
অর্ থে</w>
স্বা য়
ে ন্ট</w>
193 7</w>
মাল ার</w>
6 -এ</w>
কমি শন</w>
এর শা
কু ড়ি
ভৌ ত</w>
সাত টি</w>
বর্ তিত</w>
সমুদ্র ের</w>
ব্রাজিল ের</w>
চ্যাপ লিন</w>
ক্রম বর্ধমান</w>
দৃশ্য মান</w>
সার্বভৌ ম</w>
তিনি ই</w>
লে ফট
র ফ
7 ,</w>
পর ই</w>
ষ ড়
ী )</w>
দক্ষি ণা
3 -এ</w>
192 8</w>
কম ন
সে খান</w>
রবী ন্দ্র</w>
উপা ধি</w>
ণা ঙ্গ</w>
প্রত্য ে
প্রধানমন্ত্র ী।</w>
যুগ ীয়</w>
বিধান সভা</w>
ভিটাম িন</w>
ক্ র</w>
ন ার্
সি র
প্রথ া</w>
অ্যা কা
অভি ষ
গু জ
ক ন্যা
শত ক</w>
রাজ স্ব</w>
তর ল</w>
রাষ্ট্রপ তির</w>
ইংরেজি তে</w>
প্রকৃ তির</w>
ব্যাকট েরিয়া</w>
উ সমান
বান্দর বান</w>
হ ান
তা জ
অ ঙ্
শা য়</w>
কর্ ষ
পার েন
পু স্ত
অধ ু
ী পুর</w>
ক ন্ট
স্ব প্
পরি বহ
সাং বিধ
মহা বিশ্বের</w>
191 4</w>
পর্যা য়
ত েও</w>
ষ্ঠ ানিক</w>
বি খ্যাত।</w>
খ ্র
সাংবিধ ানিক</w>
ন্ </w>
র )</w>
দু স</w>
শি ব
ভূ মধ্য
রা য়,</w>
ক্র িয়া
ব্যা ন্ড</w>
নে ওয়ার</w>
গ্র স্ত</w>
শ িকা
( বর্তমানে</w>
পুন রুদ্ধ
সেন ানি
রচ নার</w>
হা ট,</w>
বিদ্রো হের</w>
লন্ড নে</w>
মানুষ কে</w>
বাহিনী তে</w>
তেম ন</w>
ভা বেই</w>
সায়ে ন্স</w>
গীত িকার</w>
কিংবদ ন্তি</w>
কমন ওয়েল
ভ ে</w>
5 ,</w>
হ বি
ফ াম
মা তা</w>
স্ট ু
রো ড</w>
ঞ্ জের</w>
দেখ ু
ম্যা ট্র
কথ িত</w>
দশ ম</w>
ওয়ে স্ট</w>
191 7</w>
অ্যা ন্টি
গ্ লো
পৃষ্ঠ ের</w>
পুলি শের</w>
উচ্চ তর</w>
ক্রো মো
হাল কা</w>
ধারাবাহ িক</w>
স বাই</w>
কো র</w>
ন েন</w>
উপ পাদ
কা টা</w>
ম িয়ার</w>
হু ম
বাড় ির</w>
কা ঁচ
বিপ্ল বের</w>
নাগর িক
স্থানা ন্তর</w>
সর্ব নিম্ন</w>
সম্মেল ন</w>
বন্দ্যোপাধ্যা য়</w>
জান ুয়ারি,</w>
ব্যব স্থাপনা</w>
পদার্থ বিজ্ঞানে</w>
অন্তর্ভু ক্ত।</w>
ব্রাহ্মণ বাড়িয়া</w>
মতাম ত</w>
পি রোজ
সম র্
প দের</w>
ঞ্চ </w>
বিদ্যাল য়ের</w>
আ দেশ</w>
আল জে
ইংরে জ
শ্র ম
বাস স্থান</w>
জো ট</w>
ড িয়াম</w>
কা ব্য</w>
ইহু দি
ঈশ্ব র
মেঘ না</w>
আ বেদন</w>
সোসাই টি</w>
ী র্ণ</w>
স্বাক্ষ রিত</w>
স্ </w>
বা ,</w>
রা ই</w>
ড েন
কে ম
য়া ,</w>
পশ্চি মা
খ ারা
অনু চ্ছ
যৌ থ</w>
সময় কাল</w>
পুরা ণ</w>
গী তিক
পদ্ মা</w>
আর্ম েন
আলোচ নার</w>
নামা জ</w>
তরু ণ</w>
ঊ নবিংশ</w>
বে ঁচে</w>
গোয়ে ন্দা</w>
ইলেক্ ট্র
ষ ু
ঘ র
বা য়</w>
ভ ুল
জি নি
চল তে</w>
চা ক
ম্যা চ</w>
রাম পুর</w>
টাই মস
দিয় েছিলেন</w>
বি প--</w>
তুর স্
যোগা যোগের</w>
সম্বন্ধ ে</w>
ইন্দ িরা</w>
খ িক</w>
ত ব</w>
জ্ঞ া</w>
চ ন্দ
িয় েল</w>
প্রতি দিন</w>
টে ক্
মন্ত্র ি
শ্ বিক</w>
191 3</w>
কিছু দিন</w>
হা উস</w>
জি ন্না
নাগা দ</w>
ছ ু
ব ং
ন ান
কি .
বিদ দের</w>
3 4</w>
আ য়ের</w>
গা জী
সর্ গ</w>
অবস্থ ার</w>
সং গ্রাম
গ ের
ুরু ল</w>
ব ারা
192 6</w>
সাম্রা জ্য
বায় ো
প্রযুক্ তি
যৌ গ
অনেক গুলি</w>
সাহিত্য িক।</w>
জন গোষ্ঠীর</w>
নারায় ণ</w>
সমত ল</w>
অনুশীল ন</w>
পা শ্চা
স্ক টিশ</w>
দ র</w>
ৎ ,</w>
বি য়
হি উ
ল তা</w>
সি ন</w>
জি ডি
রয় েছ
সূ রা</w>
তু মি</w>
পরিচাল নার</w>
পৌ র</w>
বিশ্ব যুদ্ধ</w>
আই এস
ক্য ারি
এই চ</w>
বই টি</w>
হ্র দ</w>
বিভ ক্ত।</w>
প্রমাণ িত</w>
অনুর ূপ</w>
পা বনা</w>
উই ন্ডো
ও ষু
ে রা</w>
এ ডি
োল ার</w>
বর ,</w>
ভাষা ।</w>
মাদ ্রি
ভূ ষণ</w>
চর ম</w>
পরীক্ষ ার</w>
অব সান</w>
সা ধন</w>
খ্রিস্টা ব্দের</w>
শ্রু তি</w>
রাজ বংশের</w>
মাহমু দ</w>
প্রশং সা</w>
রোনাল দো</w>
অবলম্ব নে</w>
;!-- উপ-
বেশির ভাগই</w>
জো সেফ</w>
সহ জেই</w>
নীল ফাম
মধ্য যুগীয়</w>
পরা পু
;!--উপ- পরাপু
;!--উপ-পরাপু প--</w>
ন ও
স িক
দ ম</w>
র স</w>
কর ছে</w>
বায় ুর</w>
দুর্ গ</w>
ঐতিহ ্যের</w>
ওঠ ে</w>
গ মন</w>
হাম লা</w>
অফি স
শিরো পা</w>
বিস্ ফো
মহা কাশ</w>
মাছ ের</w>
;!--সংরাপ প</w>
গণে শ</w>
মারাদো না</w>
ধ্রু পদী</w>
পাই লট</w>
হিম োগ্
হিমোগ্ লো
ই তি
কা ,</w>
উপ দে
4 2</w>
কা প</w>
ং শন</w>
জীব নী
স ন,</w>
ক ণা</w>
রয় েল</w>
শ্র দ্ধ
জান ুয়
মাল িক</w>
সমা প্ত</w>
স্ বর্ণ
উঠ েছে।</w>
মি উনি
জৈ ন</w>
ণা ত্মক</w>
উপ নিবেশ
বিদেশ ি</w>
সচি ব</w>
পেল িক
মুর্ শি
রিপাবল িকান</w>
ত নামা</w>
ত ল
5 ম</w>
প্রা ণ</w>
এক সময়</w>
সো নার</w>
নদ ীতে</w>
আন ন্দ
স প্ত
ফ্ ল
লিখ েছেন</w>
তা ছাড়া</w>
আজ ও</w>
অ ণু</w>
শাসনাম লে</w>
ক্যামে রু
অধু না</w>
খ্র ী
য় ু
ফ ন</w>
িক ী</w>
ো ল</w>
ত ীর</w>
7 5</w>
য়ে ই</w>
তু ল</w>
দি ন।</w>
আস তে</w>
সার ণ
সো ম
কেন্দ্র িক</w>
190 5</w>
কর ুন</w>
ফেল ু
বা গান</w>
মে ইন</w>
বাস্ত ব
নেই ,</w>
স্কুল ,</w>
প তনের</w>
সমাজ তান্ত্রিক</w>
ল ড়াই</w>
ম িয়ান
আশ্র য়</w>
নির্ভর যোগ্য</w>
বোল ৎ
আ তা
স ''</w>
মি .</w>
ইউ </w>
ডি ও
সম্প দের</w>
পি টার</w>
মা তৃ
ট ন,</w>
ড়া তে</w>
সার া
4 -এ</w>
প্রে ক্ষি
ওয়ে ব</w>
ভূম িকায়</w>
গো পন</w>
এলাকা ।</w>
পূ রণ</w>
স্থিতি শীল</w>
সাধারণ ভাবে</w>
আজা দ</w>
র ঞ্জন</w>
সম্মুখ ীন</w>
ম জ
সা উ
কে .</w>
কো চ</w>
সং গ্রাম</w>
ঘা ঁ
স্থি তিতে</w>
ত ঃ</w>
অন ন্য</w>
কী র্
হা জী</w>
প্রাণ ীর</w>
মেঘ াল
বিপর ীতে</w>
পোশা ক</w>
সম্মেল নে</w>
শিশু দের</w>
কাউন্ সিল</w>
অক্ সাইড</w>
আধিপ ত্য</w>
হা ঁ
9 2</w>
কাল ি
আস াম</w>
শ্র ম</w>
আ মন্ত্র
192 4</w>
192 3</w>
191 5</w>
প্রযোজ ক।</w>
কমা ন্ডার</w>
ছা ড়াই</w>
সংশ্ লে
ব্যবসা য়ী</w>
আরো হ
বিতর্ কিত</w>
মহা সাগরীয়</w>
ভ্যা ট
ক্রীড়া বিদ</w>
ইং ল্যান্ডে</w>
গোল্ ডেন</w>
হুগ লি</w>
ভার ী</w>
সংখ ্যাল
3 7</w>
জান ো</w>
খা ত</w>
িকা ।</w>
সার্ চ</w>
191 6</w>
গা ড়ি</w>
অফি সার</w>
অর্ জনের</w>
মসজি দ,</w>
চিঠ ি</w>
অলিম্প িকের</w>
হ্য ারি</w>
ক -
বা উ
ক িক</w>
েন ;</w>
শি ব</w>
কে বল
প ল্
ম রু
আর্ ট</w>
স্ব র
পর্ ব</w>
190 6</w>
ক্যা ডে
সী মিত</w>
সাম ঞ্জ
অ স্থায়ী</w>
( ইংরেজি</w>
শিল্প কলা</w>
আকর্ ষ
পাথ র</w>
সংবাদ পত্র</w>
ইম াম</w>
ফাউন্ড েশন</w>
ভাব্যা --</w>
লেফট েন
বং শা
আ ণ
ল াম
য় ক</w>
স লি
না স্ত
দা য়ী</w>
র ণের</w>
টে স্ট</w>
লি গের</w>
নিক ে
190 4</w>
স ্রো
বল েছিলেন</w>
কাহি নী
ূল কভাবে</w>
ম ঙ্গল</w>
যোগ ্যতা</w>
আর্কাইভ ের-
আণ বিক</w>
ভ্যাট িকান</w>
আর্কাইভের- ইউআরএল</w>
ন -
ম স</w>
বা ধ্য
ব ীয়</w>
খ লি
মা স্ট
জ্ঞ ান
ক িয়া</w>
দ রি
গ ন্ধ
চল মান</w>
সো ন
দ্ব ারা
হো য়া
এ য়ার</w>
10 টি</w>
কাঠ ের</w>
নিয়ন্ত্র িত</w>
প্রকৌশ লী</w>
সহায় ক</w>
প্রদর্শ িত</w>
ইতিহাস বিদ</w>
ঘি রে</w>
এক্স প্রেস</w>
ওল ন্দা
কার্যাল য়</w>
সংকে ত</w>
বিশ ুদ্ধ</w>
তেজ স্
গ্রেফ তার</w>
বেষ্ট িত</w>
রাঙ্গ ামাটি</w>
উসমান ীয়</w>
টাইমস ''</w>
4 .
ড া</w>
ভ ের</w>
গ ম</w>
পা তা
বী জ</w>
আগ ্
ফু স
193 3</w>
লক্ষ ে</w>
সার্ ভি
শ ্যাম
শ চন্দ্র</w>
বাঙ ালি
দ্র ব্য</w>
মিশ রের</w>
দৃষ্ টি</w>
প্রণ য়ন</w>
জাল াল</w>
ইউ নূ
দ্বীপপু ঞ্জ</w>
টাঙ্গ াইল</w>
খ্যা তনামা</w>
ট কে</w>
কার ্য</w>
কি ম</w>
সর ি
মে য়ে</w>
3 9</w>
তথ ্যের</w>
উদ্ </w>
বেশ ী</w>
া য়,</w>
ব্যব স্থাপ
গঞ্ জের</w>
9 -এ</w>
রাজ ্য।</w>
দিয় েছে।</w>
ইতাল ি</w>
বৃ ত্ত</w>
নার ীদের</w>
গোল াম</w>
ফার্ সি</w>
ফিল্ ড</w>
গুদা সাঁ
গুদাসাঁ --</w>
জ ।</w>
ক ণ
ত ে।</w>
এক র</w>
সা স</w>
হি মা
ল েন।</w>
যু ব</w>
দেশ ।</w>
আই নি</w>
সাধার ণের</w>
শু ক
ভু ট
বো ধ</w>
পড় তে</w>
রাম ি
প্রত্য ক্ষ</w>
আজ কের</w>
সাক্ষা ৎ</w>
মজু ম
সাতক্ষ ীরা</w>
1 -
িল া</w>
স না
জ ুর</w>
ণ ুর</w>
দে ন,</w>
প্রে ক্ষ
মুখ ্য
ভ োগ</w>
পঞ্চ গড়</w>
পদার্থ বিজ্ঞানের</w>
নজ র
এড ওয়ার্ড</w>
স্টেড িয়াম</w>
চর্ চা</w>
হাঙ্গ ের
নিম্ নাঞ্চল</w>
মুসলমান দের</w>
লেফটেন ্যান্ট</w>
নিয় ো
আ য়া
বো ধ
সহ জে</w>
10 00</w>
ফেল ে</w>
বিমান ের</w>
আ গ্রহ</w>
প্রতিনি ধি
ড ক্টর</w>
বি রোধ</w>
গ্র ্যান্ড</w>
গু গল</w>
বৈ ষ্ণ
পরগ না</w>
রবীন্দ্র নাথের</w>
খেলা ধুল
; -</w>
যা ব
নে ,</w>
ল্ </w>
বর্ ণের</w>
ড াই
মহা বিদ্যালয়</w>
ম্যা গা
5 -এ</w>
কার্ ড</w>
নিবন্ধ ে</w>
পরি বার
স্বী কৃ
প্রচ লি
জগ তে</w>
সে ক্টর</w>
মন্দি র,</w>
নগর ী</w>
সমী করণ</w>
স্মৃতি সৌ
অ্যা সোসিয়ে
প্রেক্ষি তে</w>
ম ্য</w>
কা ।</w>
কা ত</w>
স্ বে
মু ন্
স্থ লে</w>
ড ব্
প্র থা
ব রের</w>
পুর ি</w>
মৃ ত</w>
প ড়া</w>
মে ন্ট
এক ত্রে</w>
কিল ি
দ মন</w>
মহ কুমার</w>
আট টি</w>
বিক্র িয়া</w>
হার্ ভার্
প্রকল্প ের</w>
ডাকো টা</w>
সহ যোগী</w>
অ স্বীকার</w>
ভাইরা স</w>
থিয়ে টার</w>
ব্রহ্ম পুত্র</w>
আবহা ওয়া</w>
খারা প</w>
ক্ষ ো
ধ না
অ পরি
সু ত
ম্ ব</w>
বস বাস
স্ কি</w>
আলা প
ঘট নায়</w>
ীত ে,</w>
রোগ ে</w>
মুখোপাধ্যা য়</w>
অভিয ানের</w>
বিশ্ বাসের</w>
লিনা ক্স</w>
মাঠ ে</w>
ফি রিয়ে</w>
ভ ৈ
অন া
হি দ</w>
জা ত
কো ন
এ নে</w>
দ ানে</w>
পা কা</w>
5 6</w>
য় ারের</w>
তৃ তী
প্র িয়</w>
অন্তর্ গ
অ ্যাম
জেন ের</w>
জমি দ
সৌ র</w>
ীয় দের</w>
ফিল্ ম</w>
কমিউনি টি</w>
উর্ দু</w>
নিকট বর্তী</w>
ফেব্র ুয়ারি,</w>
মিশ রীয়</w>
বান্ধ া</w>
তবু ও</w>
জ্ জামান</w>
অভি ন
য়ে ড
শিল্প ,</w>
পর েই</w>
পড় েন।</w>
এর কম</w>
সভা প
ছবি টি</w>
ক ক্ষ</w>
সীমা বদ্ধ</w>
গভ ীর
ঠাকুর ের</w>
অর বি
ফরি দপুর</w>
হাঙ্গ ে
ও ডিসি
চ্যু ত</w>
বাহা দুর</w>
আগ্রহ ী</w>
ধা তব</w>
আই য়ু
হ ি</w>
এ ত</w>
া স</w>
টি স</w>
চ ্যা
ম দি
প্রা তি
জে ট</w>
ভার সাম
কল ার</w>
গ রি</w>
ডা কা</w>
জান ান।</w>
0 -এ</w>
ভাষা ,</w>
পড় ুন</w>
রাই বো
সন্ ন্যা
গোল ার্
হা জার
পুরুষ দের</w>
ক্ষেত্রে ই</w>
বাসি ন্দ
শনা ক্ত</w>
মেট্রোপলি টন</w>
মহা জাগতিক</w>
অ য়
কমনওয়েল থ</w>
চ ন</w>
শ ীয়</w>
দেশ ,</w>
দা বা</w>
ভ ্রা
চল ে।</w>
ব ুরু
শি বের</w>
কার ীদের</w>
অনুষ্ঠ ানের</w>
অনে কেই</w>
অস্ট্রেল িয়া</w>
কম্পিউ টারের</w>
অবস্থ িত,</w>
আইনস্ট াইন</w>
ভট্টা চার
ডেমো ক্র্যা
চব্ বিশ</w>
ু ৎ
র বি
কর ের</w>
2 .</w>
ম ুল
্ ড</w>
নে ত্র
মে শি
নে মে</w>
বিদ্যাল য়
4 8</w>
িয় ানা</w>
মান সিক</w>
4 র্থ</w>
মা টিতে</w>
সূর ্য
ভাগ ব
শীল তা</w>
অনেক গুলো</w>
অপেক্ষ া
তালিকা ভুক্ত</w>
দক্ষ তা</w>
টেকনোল জি</w>
পার্শ্ব বর্তী</w>
অক্স ফোর্ড</w>
স্বায় ত্ত
বাগের হাট</w>
হবি গঞ্জ</w>
আত্ম সমর্
ত খ
ঠ া</w>
র ার</w>
ছ দ্
7 ম</w>
ত্ তার</w>
স্ত ো
শি প</w>
তু ষ
ট োর</w>
অব বাহ
পৃ ষ্ঠ</w>
খ বর</w>
কে টে</w>
অ পরের</w>
বিভাগ ীয়</w>
হিসে বেও</w>
প্রার্থ ী</w>
চ্যাপ লি
মহা দেশীয়</w>
আদা য়</w>
উদ্য োগে</w>
নাদ াল</w>
াল া</w>
অ -
বি প
1 .</w>
পা য়
স িত</w>
প্র সে
শি র</w>
6 6</w>
আ গ</w>
বা ছা
'' '''</w>
1 %</w>
পর্ বে</w>
স্প েন</w>
কবি র</w>
রাই ট</w>
চর ণ</w>
চিন্ তা</w>
জনপ্রিয় ।</w>
পা বলি
সমৃ দ্ধ
প্যারি স</w>
সপ্তা হ</w>
মেক্সিক ো</w>
হাও ড়া</w>
রক্ তের</w>
দারি দ্র
কঙ্গ ো</w>
লুই স</w>
আলেকজা ন্ডার</w>
বৈ শ্বিক</w>
- র</w>
সং ক
্য ু</w>
ই ঙ্গ
ন্ড ি</w>
রা তের</w>
মিল িয়
বঙ্গ ের</w>
192 5</w>
গ্ ধ</w>
নাই জে
অঞ্চল ।</w>
চার্ চ</w>
প্রস্তা ব
উদ্ ভব</w>
দৈর্ঘ ্যের</w>
সর্ব কালের</w>
উদ্য োগ</w>
গান্ধ ীর</w>
প্রা ন্তে</w>
মিনি টে</w>
দৌ ল
আইন জীবী</w>
দিল্ লির</w>
বিক শিত</w>
ইঞ্জিনিয় ারিং</w>
উইন্ডো জ</w>
ক্যাডে ট</w>
আ ট</w>
জন া
ুর া</w>
জ ো</w>
জ ঙ্গ
কো র
4 7</w>
;!-- স
ব্ ল্যা
শিল্প ী,</w>
ন থি
ম্ব ু
ঘোষ িত</w>
জেন ে
গণ তন্ত্র</w>
সমা ন্তর
ইয় র্
চট্ট গ্রামে</w>
পদ ত্যাগ</w>
জা ফর</w>
পদ্ ম
চো খে</w>
করে ;</w>
আঁ কা</w>
---- ----
ভাস্কর ্য</w>
সংশো ধ
মেয় র</w>
শু ষ্ক</w>
পরি ষ্কার</w>
া য়
ি )</w>
ট ক</w>
চি র
( বা</w>
- 1</w>
দা ,</w>
বল ্
অবস্থ ানের</w>
8 9</w>
নদ -
জু ন,</w>
প্ ল্যা
ফ টো
দ ্যা</w>
লিখ তে</w>
সংখ্যা য়</w>
দুর্ গা
ভার্ জি
লো হিত</w>
ক্ষু দ্র
কর্ম রত</w>
সাম গ্রিক</w>
গতি শীল</w>
হিল বে
বন্দ্যোপাধ্যা য়,</w>
আল বেন
ব্রিটিশ দের</w>
আনো য়ার</w>
মার্ চ,</w>
স্যা টে
সংখ্যাগরি ষ্ঠ</w>
প্রাবন্ধ িক</w>
প্রজন ন</w>
পি রামি
র ন</w>
প্র শ
20 )</w>
ম ো</w>
ব রে
5 5</w>
মে মো
ছা য়া
জীব ের</w>
জু ল</w>
খ্যা তি
রক্ষ ণ
7 -এ</w>
ই ব্রা
মুক্তি যুদ্ধ</w>
গি রি
এ গুলোর</w>
মুক্তি যুদ্ধে</w>
ক্য াম্
স্ মার
জয় পুর
খাল ে
লাল ন</w>
অভ্যন্ত রে</w>
অ ভাব</w>
রাঙ্গ ু
;!--সংরাপ প--</w>
পর্যন্ত ,</w>
সিস্টেম ের</w>
কল্যা ণ</w>
ছেল ে
চ ৈ
ত ল</w>
নে য়
মা সু
ব্দ )</w>
য়ে জ</w>
দ্ বাদ
হয়েছিল েন</w>
আ খ্যা
রক্ষ ার</w>
8 -এ</w>
রা ফা
নির ্যা
প্লে ট</w>
অ ঙ্ক
কঠ োর</w>
মন্দি রের</w>
প্রজাতন্ত্র ী</w>
ইউর ো</w>
রি পোর্ট</w>
ধ্রু বক</w>
অন্ত ত</w>
নভেম্ব র,</w>
অপ সারণ</w>
লো কেরা</w>
সুভাষ চন্দ্র</w>
মাইল )</w>
অপেক্ষা কৃত</w>
কেবল মাত্র</w>
হ ন
এ ঁ
কর ত</w>
ন িল
মান িক
ুর ী</w>
সর ল</w>
বিদ্যাল য়ে</w>
সে তু
রাষ্ট্র ।</w>
সে টা</w>
পুরস্ কার
সূ ত্রে</w>
স্ পর্
লু ই</w>
190 3</w>
ঘোষ ,</w>
ড়ি ,</w>
বাজ ারের</w>
নৌ কা</w>
গা ঁ</w>
চাল ায়।</w>
রো ড,</w>
রাজ কীয়</w>
পাথ রের</w>
কারণ ে,</w>
চিত্র নাট্যকার</w>
উপকূ লে</w>
ফ্রি ড
একাডে মির</w>
অ ন</w>
জা ,</w>
দি ঘ
চাল িত</w>
ইউ নে
এ জে
অ্যা ন্ট
192 7</w>
নাট োর</w>
6 ষ্ঠ</w>
19 10</w>
সম্প ত্তি</w>
আ গ্রা
আহ সান</w>
আমের িকায়</w>
সং গী
একাডেম ী</w>
পরিবেশ ে</w>
বিহ ারের</w>
শর্ ত</w>
করছ েন।</w>
ডিসেম্ব র,</w>
বিনি ময়</w>
অনুষ দ</w>
খালে দা</w>
দ ফ
র ৌ
গ িল
8 ম</w>
ম োগ
লি থ
নি ষ্ঠ
স জ্
গ ানে</w>
না জি
গ লের</w>
ত ারের</w>
পো প</w>
প্রকাশ না</w>
ী করণ</w>
রহ মান
ক্যা ন্
লিখ ে</w>
ভো লা</w>
উপা য়</w>
আগ মন</w>
ম নির
উনি শ</w>
সিং হাস
বোঝ া</w>
প্রতিষ্ঠা তা।</w>
প্রভ ৃ
নব ম</w>
গো ড়ার</w>
প্রতিযোগি তায়</w>
বির ল</w>
মিনি ট</w>
স্ট্রি ং</w>
সমা প্তি</w>
এ টিই</w>
ডিজা ইন</w>
ঝি নাই
মা ওলানা</w>
সুন্ নি</w>
মুখো মুখ
ছদ্ ম
প্রাতি ষ্ঠানিক</w>
মুখোমুখ ি</w>
শ ্য
গ ড়
মে ই</w>
– 1</w>
ব য়ে</w>
সাম গ্র
কাল ্প
বি বৃ
স ারি
স ারি</w>
মি নার</w>
ু য়া</w>
ম ণি
পৌ রা
সভ ্য</w>
শো ক</w>
190 1</w>
কম পক্ষে</w>
শাখ ার</w>
টাই ম</w>
রচ য়
কণ্ ঠ</w>
মহিল াদের</w>
পারি বার
ঘণ্ টা</w>
প্রকৃত পক্ষে</w>
কুড়ি গ্রাম</w>
পারিবার িক</w>
রা স্
জন তা</w>
ভি ল</w>
ভূ -
মে রু
ইউনিয় নে</w>
পাল ্
চিত্র িত</w>
তুল না</w>
এশ িয়ান</w>
ভা বের</w>
188 9</w>
মহা দেশে</w>
দেশ টিতে</w>
উপাদ ানের</w>
যাত্র ার</w>
শিক্ষা প্রতিষ্ঠান</w>
অব সর</w>
কাউন্ সিল
কাউন্ টি</w>
ছাত্র দের</w>
কল্প কাহিনী</w>
আবাস িক</w>
সমি তি</w>
রহ মান,</w>
স্বয় ং
পি ংক</w>
ব্যক্তিত্ব ।</w>
ক্রান্ত ীয়</w>
আ ম</w>
ঘ ু</w>
ং য়ের</w>
মে লা
ঙ্ কের</w>
বাদ ক</w>
নি বাস</w>
মো বাই
নির্ মাণ
রেখ ার</w>
সেনা পতি</w>
টাই প</w>
বিজ্ঞান ী,</w>
প্রাণ িত</w>
গিয় েছিল।</w>
মার্ টিন</w>
ন্ত ু,</w>
সিরি জের</w>
নিউক্ল িয়া
গঙ্গ োপাধ্যা
যক্ষ্ মা</w>
অনুমো দিত</w>
ইসরায় েল
হাসপাতাল ে</w>
অভিজ্ঞ তা</w>
মাদ্রা সা,</w>
জুলাই ,</w>
খর চ</w>
স্ট ার্ন</w>
সুনাম গঞ্জ</w>
পেছ নে</w>
উজ্জ্ব ল</w>
মজুম দার</w>
গ ,</w>
ঠ িক
র ং</w>
হি ম</w>
ব দের</w>
ঙ্গ ে</w>
ই ঞ্চ
কর ায়</w>
বাংলাদেশ কে</w>
8 8</w>
শি খ</w>
মূ ল্যা
বর্ ষের</w>
ই তো
; ইউনিয়ন</w>
স েলি
মাত্র ার</w>
শাখ ায়</w>
চক্র বর্তী</w>
এশ িয়ায়</w>
পরি স্থিতি</w>
ওয় াল্
বাংলা পিডিয়া</w>
পৌরা ণিক</w>
দ্বাদ শ</w>
এ ত
ই ট
গ ন</w>
িক ো
ভ েন
না ৎ
মু ল</w>
মান বা
যা তা
ন বী
ড োর</w>
শিল্প ে</w>
আল ম
উপ স্থাপ
দ ানি</w>
মসজি দ
নে তা।</w>
মিশ ্র</w>
সংস্কৃ তিতে</w>
প্রস্ত ু
উদ ্যান</w>
প শু</w>
পাহা ড়ের</w>
প্র বর্তন</w>
মুখোপাধ্যা য়,</w>
প্রা দেশিক</w>
আর্কাইভ ের-তারিখ</w>
টেলি ফোন</w>
পয়ে ন্ট</w>
এছা ড়াও,</w>
গ ম্বু
ফ ৌ
থ ার</w>
ত্ ন</w>
ল ো</w>
ব পুর</w>
বা চ্চ
হ লের</w>
মিল িয়ে</w>
উচ্চ তায়</w>
এ ক্ষেত্রে</w>
জ ড়িয়ে</w>
পুরস্ কারের</w>
যৌ ন</w>
আরে ক</w>
শীত ল</w>
উপকূ ল</w>
দ্র ুত
জু নিয়র</w>
বসু ,</w>
ওপ েন</w>
পুনরুদ্ধ ার</w>
পিরোজ পুর</w>
নীলফাম ারী</w>
প্রেক্ষ াপ
হার্ভার্ ড</w>
ত্ বা
সা ন্
হ তা
দু '
মো তা
ব্যা ন্ড
থাক েন</w>
5 ),</w>
ভু ট্
স্থ পতি</w>
ফ্র ি</w>
কবি তা
নি রী
ান ন্দ</w>
সা পেক্ষ
সৌ র
শ পথ</w>
নার ীর</w>
গ্রু পের</w>
কার্য কলা
ে ন্দ্রনাথ</w>
প্রেসিডে ন্সি</w>
ঘ নিষ্ঠ</w>
কোথা ও</w>
কর্ণ ফুল
অবশি ষ্ট</w>
প্র চেষ্ট
অ্যা কিলি
কাল্প নিক</w>
সুত রা
াম ের</w>
অব ৈ
ত্ তির</w>
ংশ ই</w>
ন্যা য়</w>
জান িয়
সাই ন</w>
মন্ত্র ী।</w>
পুরু ষের</w>
2 %</w>
তে হর
কোম্প ানি
দিয় েছেন।</w>
আও তায়</w>
গাছ া</w>
বিভাগ ,</w>
দ িলে</w>
করি ম</w>
চুয়া ডাঙ্গা</w>
সঞ্চ াল
বিস্তৃ ত।</w>
দ্বৈ ত</w>
বি রাট</w>
মাধ্যম ে।</w>
ক্রোমো জো
তুরস্ কের</w>
ম ৈ
ভ িল
ন তে</w>
স )</w>
জন ে</w>
ক ু</w>
কো ণ</w>
4 3</w>
গর ম</w>
পরি সংখ্য
17 6
ব্যা ক্ট
ন র্থ</w>
রেকর্ ড
সংসদ ে</w>
ইরা কের</w>
ক্যালিফোর্ নিয়
বিশ্ব কোষ</w>
শরী রের</w>
মা থা</w>
কানাড ীয়</w>
কানাড া</w>
ডিসেম্ব রে</w>
ঘ ুরে</w>
দৃ ঢ়</w>
ব্রা জিল</w>
হুমায় ূ
তুলনাম ূলক</w>
ক্রমা গত</w>
হলু দ</w>
ওলন্দা জ</w>
লাল মনির
অনু প্রাণিত</w>
ণ ী
কা ন্দ
ন্দ ু</w>
সি গ
ও জন</w>
5 4</w>
5 3</w>
( যা</w>
ী ভাবে</w>
ট েল</w>
রাখ েন।</w>
বর ফ</w>
আধু নিক
গ্যা সের</w>
গ্রী ক</w>
শাস্ ত্র</w>
সদস্য রা</w>
ব তী</w>
মা গুর
সঙ্গীত জ্ঞ</w>
যায় নি।</w>
স্মর ণ</w>
সম্ মিলিত</w>
সি নিয়র</w>
বে ঙ্গাল
আগস্ট ,</w>
পদ ক্ষেপ</w>
মালিক ানা
উষ্ ণ</w>
রাজ বংশ</w>
মাথা পিছু</w>
প্রচলি ত।</w>
ম ঠ
থ ান
াম ,</w>
রা স</w>
কা স</w>
মে দি
জি ও
বা গ</w>
মু ছে</w>
স্থা য়
দি ন,</w>
ম্ </w>
মৌ লের</w>
চু ম্ব
রাজনী তিতে</w>
অ ষ্টা
190 9</w>
ক্যা ন্ট
চার্ জ</w>
মর ক্
আইন সভা</w>
সমা ধি
বর্গ কিলোমিটার</w>
ভারত )</w>
সেল স
আর্ টস</w>
খন ন</w>
এপ্র িল,</w>
চিত্র শালা</w>
হৃ দ
আইস ো
মুর্শি দা
উপ লক্ষে</w>
পুরো পুরি</w>
অধিকা ংশই</w>
ঠ ি</w>
দে য়
কা দে
পা ট</w>
19 )</w>
ক্ষ ার</w>
ওয় ার
গ োগ
রাজ ি</w>
গো প
গো বি
ডা ব
স্থান ।</w>
ধর্ম ,</w>
কর্ম ের</w>
পুর ানো</w>
মা সিক</w>
হে ক্ট
কল্প না</w>
কাঠাম োর</w>
আয়ো জিত</w>
ন বাব
হ ্যারি
ট ার্স</w>
নে পথ
মা ঠ</w>
ম স্তি
অর্ধ েক</w>
ঞ্চ লীয়</w>
সেকে ন্ড</w>
দার্শনিক ।</w>
মি র্জা</w>
লিমি টেড</w>
হাদি স</w>
প্রান্ত িক</w>
কাঁচ া</w>
পাশ্চা ত্য</w>
তৃতী য়া
আখ্যা য়িত</w>
ডাব লিন</w>
ক্ তার</w>
অনু ভূ
িক্ষ ে
য়ে ট</w>
ভ য়া
বাহ ন</w>
টো কি
অভি বাস
মুখ ্য</w>
য শো
ড োমি
কৌ তু
বিদ ্যার</w>
অব ধি</w>
অনেক টা</w>
সমন্ বিত</w>
ল্যা টিন</w>
সংগ্রহ ের</w>
টি রও</w>
বৈচিত্র ্য</w>
আক বর</w>
সাগর ,</w>
মো টাম
জ্যা ক</w>
হামি দ</w>
প্রী তি
র ণ
্র ি</w>
দে ল</w>
কি ম
ভি ন</w>
ব রে</w>
ব েছে</w>
মি শন</w>
ইস রা
অ টো
ণ্ড ে</w>
বঙ্গ া
ইসলাম িয়া</w>
আর বের</w>
মান বিক</w>
বিধ ি</w>
অ সাধারণ</w>
করত েন,</w>
ব্য র্থ
রাই ল</w>
বিশেষ জ্ঞ
নিয়ন্ত্র ণে</w>
মিশ র</w>
দ ক্ষ</w>
খো ঁ
অস্ট্রেল িয়ার</w>
উত্তর- পশ্চিম</w>
নর সিং
ইরা ন</w>
ক েনে
চার পাশে</w>
মি ষ্টি</w>
মু দ্রা
মিশ্র ণ</w>
সুর ক্ষা</w>
সৃ ষ্টিক
ফেডারে শন</w>
হত্যা কা
ডি এনএ</w>
কিয়ে ভ</w>
লক্ষ্মী পুর</w>
ন ুরুল</w>
তুলনাম ূলকভাবে</w>
গাই বান্ধা</w>
ব্ল্যা ক</w>
মোবাই ল</w>
প ।</w>
ন ই</w>
পর ও</w>
ি দের</w>
স্ট ের</w>
ক ্যের</w>
হু ল</w>
ন য়ন</w>
দূ ত</w>
1 নং</w>
189 0</w>
গ ালি
উভ য়ের</w>
যৌ ক্
বি রত</w>
যন্ত্র পা
ইউআর এল
করেন ৷</w>
নূ র</w>
কারণ েই</w>
বিদ্যা সাগর</w>
সৈন্য দের</w>
অপরা ধ</w>
মে হের
বিনি ম
সক্রেটি স</w>
পর ্যালো
বক্ত ব্য</w>
নিয়ো জিত</w>
রি সার্চ</w>
ইউআরএল -
ভ গ
আ বে
ক্ তা</w>
প ো</w>
যা ঁ
ভ েন</w>
4 1</w>
গুল ি
স্ট ন</w>
4 4</w>
দক্ষি ণের</w>
বু র্
সী তা
2 ),</w>
প্রধ ান।</w>
ক ্যান
সর্ব মোট</w>
প্রশাস নের</w>
গ ান,</w>
189 6</w>
মু ক্তির</w>
শিক্ষার্থ ীদের</w>
তে হ
কো পা</w>
অ বিভক্ত</w>
তাম িল</w>
দক্ষিণ- পশ্চিম</w>
শ স্য</w>
আব দুর</w>
সেন্ট ্র
আকৃ তির</w>
''' পৌরসভা
পৃষ্ঠ পোষ
;!--বাএপ্র বা
স্নায় ু
চ ক্র</w>
অন্তর্গ ত।</w>
'''পৌরসভা '''</w>
ঢ ে
জ ম</w>
আ লে
ওয় ান</w>
ম ্যাল
বা সে</w>
পে ল</w>
. ),</w>
ট্র ো
জা গর
ওয়া ।</w>
পুন রু
রাজ শাহ
তার কা</w>
প্র দেশে</w>
সে ন্টি
স্থি তির</w>
বাঁ শ
শ্রেণ ির</w>
বোঝ ানো</w>
একা দশ</w>
সপ্তা হের</w>
মুক্তিযোদ্ধ াদের</w>
সায়ে ন্
ব্যবহারকার ীর</w>
আপেক্ষ িক</w>
হাজ ারী</w>
থেকে ও</w>
ইচ্ছ া</w>
সাঁও তাল
সি ঙ্গা
উপদে ষ্টা</w>
হ ী
ল ক</w>
দ্ দ
পর ম</w>
ার্ ক</w>
জন কে</w>
ল োগ
বর্ত নের</w>
সু পার
4 9</w>
স ন্ত্র
উত্ত রের</w>
আগ ত</w>
মহ াম
হল ,</w>
বিধ ান</w>
দ িয়ে
বে দার</w>
অংশ ী
দে বীর</w>
; -এর</w>
মাদ রা
ধা তু
রেখ েছে।</w>
সময় ে,</w>
ফ্রে ড</w>
বাণি জ্যের</w>
ন্ট াইন</w>
সেপ্টেম্ব র,</w>
তাপমাত্র ায়</w>
সম্পূর্ণ রূপে</w>
ল ড়াই
আশ -আ
নেদার ল্যান্ড
হোয়া ইট</w>
নদ- নদী</w>
স্মার ক</w>
;!-- আশ-আ
;!--আশ-আ নি
ল ্য
ব ।</w>
ন ড়
ট ুর
মধ্য কার</w>
দা বি
ার্ থে</w>
প্ তির</w>
5 8</w>
মহা দেশ</w>
বে গু
িয়া কে</w>
বো ম্
িয়ে ট</w>
বন্দ ি</w>
190 7</w>
এস .</w>
তী র্থ
সহায় তায়</w>
কু মার
অনু সন্ধ
মৌসু ম</w>
ইঞ্জি ন</w>
কোর্ টের</w>
প্রার্থ না</w>
জা ভা</w>
জ্যামি তিক</w>
খাদ ্য
এক টু</w>
বিকা শের</w>
কূট নৈতিক</w>
আব্দ ুর</w>
ফেন ী</w>
(1 টি)</w>
মাগুর া</w>
ু ক
ধ ন
6 .
আ ত
রা ,</w>
েন া</w>
ো তে</w>
রা ণী</w>
স ো</w>
লি ং
সং যোগ
বল ার</w>
জ য়ের</w>
ড়া য়।</w>
বি বি</w>
ধী ন।</w>
সম্পর্ ক
টা ,</w>
ম্যা গ
বি ক্রম
ানা ,</w>
দেশ গুলির</w>
রী তি</w>
প্রো টি
েনি ং</w>
অ্যাল বা
প্রত্যা হার</w>
বিচার ে</w>
ইরা ক</w>
সংগ ীত
রঙ </w>
বি নিয়োগ</w>
চ্যাম্প িয়ন</w>
নৈ তিক
বি য়ান</w>
প্র মুখ</w>
আত্ মহ
ইসরায় েলের</w>
শুর ু।</w>
মহারা ষ্ট
থাকা কালীন</w>
ভে ঙ্গে</w>
র্ ষ
অ নি
জা ক</w>
ব্য ের</w>
ন ''</w>
সে মি
ইউ ক্র
সাম ্য
ক্ সের</w>
ন য়া
শ ক্ত</w>
চা ই</w>
উন্ ট</w>
সার ণের</w>
উত্ত রাখ
ভার ত,</w>
অ ্যান
দী প
190 2</w>
ব্য স্ত</w>
দ ফা</w>
মাত্র িক</w>
ত লায়</w>
এই ভাবে</w>
উল্ লাহ</w>
নৌ </w>
গণ হত্যা</w>
প্রতিযোগি তার</w>
অভিনেত্র ী,</w>
কলেজ ।</w>
উদ্ধ ার</w>
শহ ুরে</w>
আওরঙ্গজে ব</w>
স হিং
গুপ্ ত,</w>
ক্ষতি গ্রস্ত</w>
প্রি মিয়ার</w>
অফিস িয়াল</w>
বি ক্ষো
ইঙ্গ িত</w>
জয়পুর হাট</w>
সু বেদার</w>
ব ট
তা ই
া কে</w>
আ ড়
ড় িত</w>
কার ো</w>
ড় শ</w>
লে ট</w>
প্রা সা
9 1</w>
1 লা</w>
5 2</w>
রো জ</w>
মো কা
ল্ ট</w>
জু নিয়
মত ো
ট্র িক</w>
ম্যা সা
পার্ ক,</w>
উপজেলা '''</w>
প্রে ম</w>
ন ভো
সফ র</w>
কো ষে</w>
কাম িল</w>
কৌশ ল
সংস্ কারের</w>
প্রক্র িয়ার</w>
শে ষা
বাস্ত বায়
আর্থ ার</w>
সং গঠনের</w>
স্নাত কো
নো বেলজ
অধি নায়ক</w>
ব্যবসায় িক</w>
ক ম্পা
ম্যানে জ
আব দুল্লাহ</w>
নিষে ধা
নাগরিক ত্ব</w>
নাস্ত িক</w>
ব্য ুৎ
মেদি নী
নোবেলজ য়ী</w>
4 0
এ কর
3 .</w>
কে র
ন্ ন।</w>
ত পুর</w>
উৎ সের</w>
বাদ ,</w>
ট ারি</w>
উত্ত োল
4 00</w>
খ ালি</w>
অবস্থ ান।</w>
থাক বে।</w>
চাল ানো</w>
পান িতে</w>
গ্রা ফ
বাজ ার
গুরু তর</w>
সু প্রি
ভি ডিও</w>
সিনে মা</w>
সীমা ন্তে</w>
কেল ্
সংকল ন</w>
অভি যোগে</w>
লাইব্রে রি</w>
প্রতিফল িত</w>
ড্রা ই
চাক মা</w>
আলাপ )</w>
সংখ্যাল ঘু</w>
ইউআরএল- অবস্থা</w>
ইসরা য়েল</w>
ট্র েনিং</w>
য থ
5 .
ই ল</w>
িক তার</w>
জা বে
দি র</w>
জ লে</w>
বাংলা ,</w>
চ াল</w>
জা তের</w>
বে লের</w>
স বার</w>
ব ণ্
বাদ ্য
ধ ান্য</w>
ের ও</w>
ট্র ্যা
ট্ </w>
রাখ ে</w>
কা শ্
তারি খ
ন বী</w>
হ ানা
পাঠ ্য
কু রাই
হিসা বে,</w>
প্রস্তা বিত</w>
দিয় েছিল।</w>
গ্যা স
শিক্ষা বিদ।</w>
ইয় ো
জমি দার
সুই ড
বে সরকারী</w>
আত্ম প্রকাশ</w>
গ ামা</w>
বল েছিলেন,</w>
ফ্যা শন</w>
বিচ্ছি ন্ন
ডাকো টার</w>
মুসলিম রা</w>
স্মর ণে</w>
সৈন্য রা</w>
সেকে ন্ড
নিষ্ ক্রিয়</w>
ফ্ লাইট</w>
উৎসা হিত</w>
বিশ্বাস ,</w>
বক্তৃ তা</w>
সংস্কর ণ,</w>
অক্টো বর,</w>
বিকি রণ</w>
বসবাস কারী</w>
সিংহাস নে</w>
হুমায়ূ ন</w>
নেতৃ ত্বা
ভ র
ড েল
ট েল
ুল ের</w>
লি তে</w>
সু ফ
4 6</w>
বল ের</w>
এক দিন</w>
ের িয়ার</w>
ডা ঙ্গ
মত বাদ</w>
( 190
ন ওয়া
খণ্ড ে</w>
ীয় ভাবে</w>
প্রণ ালী</w>
নির্মা তা</w>
চক্র বর্ত
চন্দ্র ের</w>
ব্রিটিশ রা</w>
দায়ি ত্ব
কানেটিকা ট</w>
ধূ মকে
আর্মস্ট্র ং</w>
উপপাদ ্য</w>
জন সাধারণের</w>
আইয়ু ব</w>
সেন্ট্র াল</w>
স্নাতকো ত্তর</w>
খ ি
ষ ো
পা ক</w>
1 ,
হি জ
সর ের</w>
না ও</w>
18 )</w>
র য়ে</w>
8 6</w>
কাল ে
স্ট ের
ই য়া</w>
সম্পর্ কি
দু ধ</w>
কর্ম চার
পর্ বের</w>
জো র
ভো টে</w>
সর ঞ্জ
ছা ড়িয়ে</w>
ফ্রান্ সে</w>
বিজ্ঞান ীদের</w>
সূ ক্ষ্
কিছু ই</w>
তার েক</w>
উদ্ভি দের</w>
শ ঙ্ক
জন ্যই</w>
হুমায় ুন</w>
লিপি বদ্ধ</w>
লব ণ</w>
মহ েশ
জ টিল
অভিষ েক</w>
ঘাঁ টি</w>
প্রতি বেশী</w>
সরঞ্জ াম</w>
' র</w>
ম েন
র ে,</w>
রে ট</w>
ত নে</w>
গা ওয়া</w>
কা ন্ত</w>
জে রু
বু শ</w>
ফি উ
3 ),</w>
সব সময়</w>
হ ারা
প্র বল</w>
বিধ ্ব
হয়েছ েন।</w>
ণ কারী</w>
15 0</w>
ফেল ে।</w>
পশ্চিমবঙ্গ ,</w>
পত্র িকা
পট ভূমি</w>
স্ লাভ
কুরআ নে</w>
সর্ব বৃহৎ</w>
ইয়া হ
উন্নয় নে</w>
পর্বত মালা</w>
সিরি জ</w>
ফের ত</w>
অন লাইন</w>
সূত্র পাত</w>
সক্রেটি সের</w>
বার্লি নের</w>
আবির্ ভূত</w>
মূল্য বান</w>
জন্য ও</w>
স্বল্প </w>
অ্যা ঞ্জেল
নেপথ ্য</w>
ম্যাসা চু
সুপ্রি ম</w>
এলি জাবে
নেতৃত্বা ধীন</w>
ম্যাসাচু সে
8 .
ল ৌ
ড ্
অ ন্
স ঠ
স ম</w>
াল ে
চি র</w>
সি ও
স্ট ্যা
ম রা</w>
প্র ভাবে</w>
ত রের</w>
ার ির</w>
পু টি</w>
ম্ বা
ফি ন
ঘোষ ণা
দা বী</w>
প ত্রের</w>
লি ঙ্গ</w>
সময় কালে</w>
বিশ্বকা পে</w>
কর্পোরে শনের</w>
স্ত ম্ভ
রাজ বাড়ী</w>
পিছ নে</w>
কেন্দ্র শাসিত</w>
সু পারি
মাং স</w>
আকৃ ষ্ট</w>
রা ন্না</w>
স ক্রিয়
ডে স্কট
বাধ্য তাম
টেম প্লেট</w>
মোগ ল</w>
7 .
্য িক</w>
ত েল
র াল</w>
ুল িয়া</w>
পার স্
রাজ ত্ব</w>
ইস ব</w>
সি টির</w>
আস ল</w>
আগ র
ক্র মিক</w>
মে সো
আর্ দ্র
বহি র্
দী ঘ
ভব নে</w>
প্রভা বের</w>
আ কৃতি</w>
আ দর্শ
উপা য়ে</w>
বু ড়ি
নি হিত</w>
প্রক্র িয়ায়</w>
নৌ বাহিনীর</w>
185 7</w>
ইলেকট্র ন
অস্ট্রেল িয়ান</w>
শূ ণ্য</w>
িক ুল</w>
কানা ডার</w>
উপ জাতি</w>
খ ামার</w>
দৃষ্টিভ ঙ্গ
ফ্রান্ সিস</w>
আংশ িক</w>
আশে পাশের</w>
সীমা বদ্ধ
পূর্ ণাঙ্গ</w>
খেলাধুল া</w>
ও র</w>
খ তি
রা ন্
ফ িল
তা ব
হয় )</w>
সা প</w>
5 7</w>
ডি শ</w>
দেখ া
) '''</w>
হ ারের</w>
ন্ট ো</w>
র ানী</w>
ম্যা ক
হল ।</w>
য ান,</w>
সম্পাদ িত</w>
ফ্রান্ সি
12 টি</w>
প্রয়োজন ।</w>
মা স্টার</w>
বোর্ ডের</w>
আদাল তের</w>
জি উস</w>
প্রচার িত</w>
ক্ষেত্রে ,</w>
বুদ্ধি জীবী</w>
প্রতি বেদ
প্রস্ত ুত
বিনো দন</w>
আলি ম</w>
ঝুঁ কি</w>
মান চিত্রে</w>
ইন্সটিটিউ ট</w>
নেত্র কো
ষো ড়শ</w>
প্রা ধান্য</w>
2 2
র ক
চি নি</w>
এ জন্য</w>
অন্য দের</w>
স্ পি
5 9</w>
শিক্ষ িত</w>
অ রু
সরকার ,</w>
অ্যা ক্
আগ ে,</w>
রে খা
বৈ ষ
সং ক্ষে
ার ী,</w>
শিল্প ীদের</w>
ফ্র ন্ট</w>
পদার্থ বিদ</w>
4 নং</w>
ক্ স,</w>
বি দেশে</w>
সু নির্দিষ্ট</w>
উপ গ্রহ</w>
ইত্যাদি র</w>
ছো টো</w>
ডা বলি
ল ামা</w>
খ্রিষ্টা ব্দ</w>
আকা শ
বের িয়াম</w>
পদার্থ বিজ্ঞানী।</w>
অপেক্ষ া</w>
ইং লিশ</w>
উপত্য কা</w>
সমা ধানের</w>
ফা জিল</w>
দায়ি ত্বে</w>
মুম্ব ই</w>
টেনে সি</w>
অর্থা ৎ,</w>
আরোহ ণ</w>
ধ ,</w>
ন্ত রের</w>
ক শন</w>
;!-- এ
ফ েল</w>
টো য়ে
ধর্ম ী</w>
হ স্তা
কেন্দ্র ,</w>
বিজ য়ের</w>
গু প্ত
রাজ ্য,</w>
186 0</w>
সমা ধি</w>
কন সার্
যৌ গ</w>
যা ন্ত্রিক</w>
টেক নিক
জ্যোতির্ বিজ্ঞান</w>
অধিক ারী</w>
করেন নি।</w>
উপন্যা স।</w>
উল্লেখযোগ ্য
দ্বন্ দ্
উৎসব ের</w>
সংক্রম ণ</w>
মন্ত্রণাল য়</w>
অ তঃ
স্পে স</w>
ঔপন্যাস িক,</w>
শৈশ ব</w>
সালাহু দ্দিন</w>
শান্তি নিকে
বৈষ্ণ ব</w>
াম ক</w>
সা য়</w>
হা বি
পা দি
রে শ
ষ্ টির</w>
1 ),</w>
পরি ভাষা</w>
তাঁ রা</w>
রো জা</w>
তার পরে</w>
189 4</w>
কাঠ ি</w>
পরীক্ষ া
রয় ্যাল</w>
অ জানা</w>
পাহা ড়ি</w>
জাতীয় তা
পরিবেশ ের</w>
হিন্দু ধর্ম</w>
বির তি</w>
অর্ ডার</w>
মুদ্র িত</w>
পান ামা</w>
ময়মন সিং
সমন্ব য়</w>
অব তী
ব্যবসা য়</w>
উদ্ধ ৃতি</w>
মিউ জিক</w>
তরঙ্গ ের</w>
জরি প</w>
পরীক্ষ ামূলক</w>
মন্ত্রণাল য়ের</w>
ভিক্ টো
জর ুরি</w>
আমন্ত্র ণ</w>
যা কাত</w>
ক্যান্ট ন
সীতা কু
আত্মহ ত্য
( আলাপ)</w>
অবতী র্ণ</w>
4 -
স ্র
ত ান
ব ণ</w>
ী তি</w>
ব হ</w>
হা তি</w>
জি ,</w>
মো র</w>
ধার ে</w>
ক পি
বাহ ুর</w>
আর্ মি</w>
ব্র ো
টা তে</w>
ম্যা জি
চা ষের</w>
খ ানা</w>
সেন ারা</w>
2 নং</w>
রী তি
189 7</w>
ভে তর</w>
সমাজ সে
গায় ক,</w>
অলিম্প িকে</w>
প তিত</w>
বা ক্য</w>
আর্জেন্টি নীয়</w>
মার্ শাল</w>
সন্ত ানের</w>
অ্যা ওয়ার্ড</w>
নির্দেশ না</w>
অ কার্যকর</w>
মেয়া দী</w>
বের িয়ে</w>
স্টেড িয়াম
বৈচিত্র ্য
প্রধানমন্ত্র ীর</w>
বিদ্রো হী</w>
অভিয ানে</w>
বি এন</w>
মাথা য়</w>
অভ্যুত্থ ান</w>
প্র বাহের</w>
তহ বিল</w>
অগ্ নি
( বাংলাদেশ)</w>
মুন্ সী
মানবা ধিকার</w>
আইসো টো
অষ্টা দশ</w>
;!--বাএপ্রবা ভাব্যা--</w>
ডে পুটি</w>
পারস্ পর
শ িয়
উ ড়
বি না</w>
র তা</w>
6 4</w>
বল েন।</w>
জী বি
শে ল</w>
ত্ মা</w>
কর েই</w>
কথ ্য</w>
সৈ নিক
গ্যা ং
সৈ নিক</w>
দল কে</w>
গ ম,</w>
টু র্
বোঝ াতে</w>
ফ্রে ড
সু পার</w>
তত্ত্ব ,</w>
জন গোষ্ঠী</w>
খ্রিস্টা ব্দ</w>
তোল ার</w>
ভিয়েত নাম</w>
রিক েল
ভে তরে</w>
সেখান েই</w>
যেমন -</w>
মৎ স্য</w>
টা উন</w>
হিমাল য়</w>
গুরুত্ব পূর্ণ।</w>
চ ্যালে
অব তরণ</w>
বৃত্ত ের</w>
বিবেকান ন্দ</w>
সংগ্রাম ী</w>
ঝিনাই দহ</w>
চ্যাপলি নের</w>
তৃতীয়া ংশ</w>
ব্যুৎ পত্তি</w>
টুর্ নাম
রিকেল ্</w>
ই ।</w>
এ টি
খ ন্দ
ঞ্ জন
অ গা
কর ণে</w>
গ েল</w>
স্ বার্
প্র সঙ্গে</w>
আলা দা
প্রজা তি
পুন ঃ
ধা প</w>
ফ তে
বিশ্ব যুদ্ধে</w>
নৌ বাহিনী</w>
সং গ্রামের</w>
প্রস্ত র</w>
মুক্তিযোদ্ধ া।</w>
শর ণ
কৃ তিত্ব</w>
কেন না</w>
ব্রিট েনের</w>
পর্যন্ত ।</w>
আ য়াত</w>
ভার্ম ন্ট</w>
ধ্বং সাব
ইউরেন িয়াম</w>
ঝা ড়
কমপ্লে ক্স</w>
ঠা ন্ডা</w>
এয়ার লাই
বৃত্তা কার</w>
মহা কর্ষ
গাজী পুর</w>
দরি দ্র</w>
ভৈ রব</w>
আত্মসমর্ পণ</w>
;!--স বিপ--</w>
আগ্ নেয়
অতঃ পর</w>
ে য়</w>
গ ী</w>
স ু</w>
হি ট
ঙ্গ ের</w>
আ শা
অন ূর্
6 2</w>
র শি
বাংলাদেশ ,</w>
সম্প ৃ
সি ন্ধ
অনে কের</w>
বিভা জন</w>
স্থাপ ত্য
অর্থ ের</w>
বর্ গের</w>
বা য়ন</w>
কর তো
গণ িতে</w>
পা শা</w>
পা ইন</w>
ব ন্য
চরি ত্রের</w>
লোক সভা</w>
অনু ভব</w>
রচ নায়</w>
বছ র।</w>
পি এইচ
ইউনিয়ন সমূহ</w>
সং ক্রা
পর্যট ক</w>
উত্তরা ধিকার</w>
বহু মুখী</w>
থানা ,</w>
চৌম্ব ক</w>
পাণ্ড ুলি
এরশা দ</w>
ভারসাম ্য</w>
সুই ডিশ</w>
ো ড
য ত</w>
সা থ
িল ের</w>
ঃ )</w>
হি র</w>
ল দের</w>
ব ঙ্
ভার ে
নো য়া
দ্ব ার</w>
ম ন্ড</w>
যে গুলি</w>
স্ব র</w>
উপ হার</w>
ক বর
নি রক্ষ
হিসে বে।</w>
খা জা</w>
ভো টের</w>
189 5</w>
ব্রি গে
খণ্ড ,</w>
সম্মান িত</w>
তি স্তা</w>
শর ৎ
গান টি</w>
অস্ট্র িয়ার</w>
আগ মনের</w>
দৃ ষ্টিক
নেপাল ের</w>
মহা সাগরে</w>
বার্সেলো না</w>
মৃত্যু দণ্ড</w>
প্রতিদ্বন্ দ্বি
ঘূর্ণিঝ ড়</w>
ষড় যন্ত্র</w>
অ্যাকা ডেম
ওষু ধ</w>
অ্যাসোসিয়ে শন</w>
মেমো রিয়াল</w>
;!--এ মাজ
আইএস বিএন</w>
দৃষ্টিক ো
;!--এমাজ --</w>
অ ত
অ বা
ড় ী</w>
কি ,</w>
দ্ দ</w>
মি র্
ক্র য়</w>
নিয় ম
7 1</w>
দা তা</w>
ট ায়</w>
ট িয়ে</w>
ক লো
অবস্থ ানে</w>
পি ং</w>
তী র
ইসলাম ,</w>
5 নং</w>
3 নং</w>
গো ত্রের</w>
ফোর্ স</w>
188 2</w>
গোষ্ঠ ী
অধী ন
বৈ দিক</w>
সিলে টের</w>
বিক্র য়</w>
ফুল ের</w>
উল্ লিখিত</w>
প্রদর্শ নী</w>
বিশেষ জ্ঞ</w>
আকা শে</w>
ক্ষেত্র ফল</w>
বল েছেন,</w>
মাল দহ</w>
মেই ল</w>
ব্রু নাই</w>
সাথে ,</w>
চ্যাম্পিয়ন স</w>
ফর্ ম</w>
অসু স্থ</w>
চুক্তি তে</w>
ছোটগল্প কার</w>
প্রযুক্তি গত</w>
ভাগব ত</w>
সার্ভি স</w>
মালিকানা ধীন</w>
অ কাদে
গোবি ন্দ</w>
মোটাম ুটি</w>
বিনিম য়ে</w>
আ ঠ
4 .</w>
9 ম</w>
ম ণ</w>
েল া</w>
ভ োগ
স্ মি
সি দ্
স্ট িক</w>
ব্যা ক</w>
নো ট</w>
4 ),</w>
আ শু
সে গুলি</w>
ট্র ান
ডা য়
ট্ ট</w>
ব্র ্যা
হি ব্র
বস ুর</w>
বঙ্গ ীয়</w>
উই কি</w>
3 %</w>
লাই সে
সম্ প্রতি</w>
সম তুল
( 192
পরি শো
শত করা</w>
রা ওয়ার্
টে ক্স
কমি শ
ও ড়ি
গ েছে,</w>
186 1</w>
বাঁ কু
প্রচ ারের</w>
ভূমি ,</w>
; আমি</w>
নাম ূলক</w>
ট্রা ন্
শীত কালীন</w>
নাম করণের</w>
অস্ট্র ীয়</w>
নাট্য কার,</w>
0. 0
কোর্ স</w>
ফরি দ
আমি ন</w>
ভার্ম ন্টের</w>
সম্প্র সারণ</w>
পাঞ্জা ব</w>
ভি তরে</w>
পুস্ত ক</w>
ফা ংশন</w>
কারি গরি</w>
স্যাটে লাইট</w>
আওতা ধীন।</w>
মা উন্ট</w>
ই ক
মহাকর্ষ ীয়</w>
অ ্য
ত্ তি
হ কে</w>
ড় ,</w>
ব্ দে
ো স</w>
ম ল্
কু তু
যা বার</w>
অ ম্
ধর্ মত
বাহ ু</w>
আর্ দ্র</w>
বস ন্ত</w>
প্রতি বাদ</w>
তো ষ</w>
উৎপাদ নে</w>
নি দর্শ
এ খান</w>
189 8</w>
186 9</w>
বাঁ ধ</w>
আইন জীব
কমি শনের</w>
সড় ক
শীল ।</w>
ম ীর
স্ট ্যান্ড
পাখ ির</w>
পৌঁ ছা
শিক্ষা বিদ,</w>
জাপ ানে</w>
পুরস্ কার,</w>
পু কুর</w>
চট্টোপাধ্যা য়,</w>
নিম্ন লিখিত</w>
পণ ্যের</w>
শতাংশ ।</w>
মক্ কার</w>
বিষ্ ণু
তত্ত্বাব ধা
স্কে ট
মুখ্য মন্ত্রী</w>
; বাংলাপিডিয়া</w>
মনো নয়ন</w>
নড় াইল</w>
( 19
হয় নি</w>
ন্ত ন</w>
দা ই</w>
নিয় াম</w>
জে .</w>
প্রা ন্ত</w>
নে তাদের</w>
বি পর্য
সা ড়ে</w>
পার্ শ্
সং স্থান</w>
লি গে</w>
ঞ্ জাম
বাল ্
খাল ের</w>
সাংবাদ িক।</w>
উপ যোগী</w>
বর্ধ িত</w>
শঙ্ কর</w>
ধ্বংস প্রবণতা</w>
স্পষ্ট ভাবে</w>
শত্র ু
খে তাব</w>
রাস্ তার</w>
পার্ লাম
ডোমি নিক
তেহ রান</w>
ভয়া বহ</w>
ম্যাজি স্ট্রে
পারস্পর িক</w>
শ য়</w>
রা ও</w>
ব্য ুর
- 2</w>
ই য়ের</w>
বি য়ের</w>
রাজ ত্ব
চ ত্ব
আই ই
খা ওয়া</w>
লাই নের</w>
তো মার</w>
আ মের</w>
জান ানো</w>
পু ত্রের</w>
188 5</w>
বিবে চ
উঠ ে।</w>
( 1)</w>
র হাট</w>
খুল ে</w>
অভি বাসী</w>
জগ ন্
জগ ৎ</w>
হলে ও,</w>
ীয় রা</w>
ভারত ী</w>
আল বার্ট</w>
সাধ িত
দিন তারিখ</w>
রাজা ।</w>
সং ঘাত</w>
গ্রহণ যোগ্য</w>
ব্য তিক্রম</w>
বাসী রা</w>
সভ ্যতা</w>
বিতর্ কের</w>
উত্তরা ধিক
অতী তে</w>
শা হ্</w>
গোপাল গঞ্জ</w>
আফগানিস্ত ানের</w>
কারা গারে</w>
ধর্মাবলম্ব ী</w>
হেমিং ওয়ে</w>
ভূখণ্ড ের</w>
প্রাপ্ত বয়স্ক</w>
আগ্নেয় গি
ট্রান জি
সাধিত --</w>
্যা য়</w>
ভা ঙ
টি ভি
উত্ত ে
0 ),</w>
উ ন্ড</w>
সো হ
ভু ত</w>
ডে টা</w>
ক বর</w>
ওয়া ,</w>
দর্শ ক</w>
189 9</w>
ধ্ব নি
বার ো</w>
চিকিৎ সার</w>
জাহা জের</w>
বোঝ ায়</w>
শ্রেণ ীতে</w>
সাহিত্য িক,</w>
ফাই ল</w>
গ্রা হক</w>
আ জার
মধ্য যুগের</w>
ইর ানি</w>
পার স্য</w>
মহা সড়ক</w>
করছ েন</w>
মেয়া দ</w>
স্কো র</w>
বছর ই</w>
বীজ গণিত</w>
দেওয় ান</w>
উত্ থা
পরিচি ত)</w>
ডেমো ক্রে
প্র সিদ্ধ</w>
দত্ত ,</w>
সংঘর্ ষ</w>
মহান গর</w>
আগু ন</w>
নারায়ণ গঞ্জ</w>
ইসরায়েল ি</w>
ভট্টাচার ্য,</w>
সাপেক্ষ ে</w>
কর্ণফুল ী</w>
আজার বাই
র ও
ফ ে</w>
1 ।</w>
ড ার
ন র্
ত ক</w>
মা ধ
ক্ষ য়</w>
ম দের</w>
লা য়
শ ো</w>
প নের</w>
লি ং</w>
দু জন</w>
রে ড</w>
6 8</w>
দেখ িয়
বি লের</w>
মে রি</w>
6 ),</w>
রো ধী
পে ট্র
বাড় িয়ে</w>
স িয়াম</w>
ঘা ট
ে ন্স</w>
পুন রা
188 7</w>
মাঝ ারি</w>
যৌ থ
সময় ই</w>
দেব তাদের</w>
প্রেসিডে ন্
প্র ফ
বিচার ক</w>
চে স্টার</w>
শীত কালে</w>
পোল ো</w>
ক লা,</w>
অনু প্রের
তোল েন।</w>
আলোচ নায়</w>
সাক্ষা ৎ
সুন্দর বন</w>
উপলব্ ধি</w>
চিত্র নাট্যকার।</w>
বার্ষ িকী</w>
প্রথা গত</w>
ধনা ত্মক</w>
মূল্যা য়ন</w>
সুতরা ং</w>
হিব্র ু</w>
প্রফ ুল্
ভা স
েল র</w>
খ াম
ভ ্যাল
5 1</w>
8 2</w>
স ্রা
মার্ কে
7 7</w>
য়ে ও</w>
িক্ সের</w>
জান িয়ে</w>
ী য়,</w>
চার ু
প শু
সংস্ কার
নির্ গত</w>
সদস ্যের</w>
চিত্র া</w>
নাম েই</w>
দশ টি</w>
অভি যো
10 ম</w>
ক্রম ের</w>
অবস্থ িত
ল্যান্ড ,</w>
সম ীক্ষ
লি উ</w>
জার্মান িতে</w>
ক লায়</w>
বে লায়</w>
দখ লে</w>
প্র সার</w>
গে য়
গা জী</w>
ইন্ট েল</w>
একাডেম িক</w>
সংরক্ষ ণের</w>
হয় তো</w>
বাব ু</w>
হার্ ড
ফরা সী</w>
মো শার
পরিবেশ গত</w>
ু য়েল</w>
পৌঁ ছে</w>
দাঁ ড়
ত্রিভু জ</w>
স্ পোর্
আইনস্ট াই
স্লো ভা
অ্যাসি ড</w>
এক ীভূত</w>
কার্যকর ী</w>
জিন্না হ</w>
দ্বীপপু ঞ্জের</w>
অভিন য়ের</w>
সা জানো</w>
মাসু দ</w>
টুর িং</w>
সঠ িকভাবে</w>
র ম</w>
া ই</w>
সাল াম</w>
স দ</w>
8 3</w>
রি তে</w>
বি ল্
ল ারের</w>
ষ ণের</w>
জান ান</w>
আল ী
উল্ লা
ম হল</w>
আ নার</w>
পাল ের</w>
ইসলাম পুর</w>
হো ক</w>
মো হাম্
প্র মুখ
ভব ন,</w>
( ভাষা
জা কার্
প্রো টন</w>
188 8</w>
মনো যোগ</w>
বৈশিষ্ট ্যের</w>
প্র কারের</w>
অ ন্ন
হে ক্টর</w>
বোঝ ায়।</w>
যা চ্ছে।</w>
নগর ,</w>
করেন ;</w>
বিশ্ব কোষ
সংস্ করণ
ঘূর্ ণ
ফল শ্রু
সাই ক্লো
বিজয় ী।</w>
প্রয় োগের</w>
সত র্
লিমি টে
জান ুয়ারিতে</w>
অঙ্ কিত</w>
মাদার ীপুর</w>
স্বে চ্ছা
খ্যাতি মান</w>
গণ প্রজাতন্ত্রী</w>
ন ল
লে ক</w>
লি ল</w>
সি পা
ম লা</w>
9 5</w>
8 5</w>
8 4</w>
রি ,</w>
আর বি
তা ড়া
মিল ন</w>
উপ ভাষা</w>
6 %</w>
ধ িতে</w>
ক পি</w>
খা বারের</w>
গ্রা হ
চী নে</w>
ো ন্ন
আয়ো ডি
কর লেন</w>
বিবি ধ</w>
শরী ফ</w>
বড় ো</w>
সফটওয় ্য
অগ্র গতি</w>
ই হা</w>
টিক ্যাল</w>
কী র্ণ</w>
ব্রিট েন</w>
গণ মাধ্যম</w>
গ্রন্থা গার</w>
উপন্যাস টি</w>
হেম ন্ত</w>
স্ব তঃ
শৃঙ্খ লা</w>
দ্রাঘি মাংশ</w>
নাগ াল
শ্রদ্ধ া</w>
নও গাঁ</w>
সন্ত্র া
মহা ত্মা</w>
অ্যাকাডেম ি</w>
বা স্কেট
ডোমিনিক ান</w>
প ৈ
ধ ্
বে ড়
সাল ে
ন রে
দা শ
মে রি
হিসে ব</w>
9 8</w>
হা তের</w>
ন্ট ে
বাদ ি</w>
খা তে</w>
জ িয়ার</w>
বৈ শা
আ চার
গর ুর</w>
টে স্ট
কর্ম ী।</w>
বাস ,</w>
বিশ্ববিদ্যাল য়।</w>
ভে ট</w>
শে য়ার</w>
নাট কের</w>
ভাষা বিজ্ঞান</w>
পশ্চি মের</w>
গ্রে প্
ব্রা উ
এশ িয়া
সংখ্যা ,</w>
ওয় ্যার</w>
লিখ েছিলেন</w>
গল্প ের</w>
গৃহ যুদ্ধ</w>
পরিকল্প িত</w>
পেয় েছিলেন।</w>
ইলেকট্র নিক</w>
আ কাশ</w>
কর তো।</w>
অতি বাহিত</w>
সন্ত ো
অব কাঠামো</w>
ই ন্ডি
তেম নি</w>
ব্রু নাই
দাঁ ড়ায়</w>
সম্মান সূচক</w>
সুন্দর বনের</w>
সংখ্যাগরি ষ্ঠ
ডাক নাম</w>
ক্যাম্প </w>
সামঞ্জ স্য
জনা ব</w>
সমান্তর াল</w>
অ শোক</w>
দৃষ্টিকো ণ</w>
জগন্ নাথ</w>
বৈশা খ</w>
গ্রেপ্ তার</w>
ঝ াল
'' অ
পর ো
পা ত
্য দের</w>
প ্প
বে কার
অব ন
য় ারা</w>
ডি .</w>
ত্ ত্ব</w>
ত্ব কের</w>
ঘট ে,</w>
স্ বৈ
উল্লেখ ্য</w>
ডা চ</w>
গঞ্ জ
সম ান।</w>
9 %</w>
হা দী
সম্ মানে</w>
এর ও</w>
দেশ গুলোর</w>
সেনা দের</w>
চৌধুর ীর</w>
দেব তার</w>
কার ণ,</w>
মাদ্রা সা
অফি সে</w>
ভ্রম ণের</w>
গৌ তম</w>
গ েমস</w>
21 শে</w>
উদাহরণস্ব রূপ</w>
অ্যাড া</w>
ক্ষেত্রে ও</w>
জ ব্ব
সন্ দেহ</w>
কর্মকা ণ্ড</w>
বি বাহের</w>
সেই সাথে</w>
সো র্স</w>
হচ্ছ ে,</w>
বুদাপে স্ট</w>
প্র ফেসর</w>
গ্রন্থ পঞ্জি</w>
হুম কি</w>
রাম ায়
ইউনূ স</w>
রাঙ্গু নিয়া</w>
টেকনিক ্যাল</w>
ই -
6 -
ট ান
মা ই</w>
কো ল
ক ে,</w>
7 2</w>
7 3</w>
স িয়া</w>
বছ রে
ব্ ধ</w>
ফ ারা
মাধ্য মের</w>
আ জীবন</w>
শাহ জা
সম্পাদ নার</w>
সম্পাদ ন</w>
189 3</w>
কাঠ </w>
পৃষ্ঠ া
বাড় ি,</w>
মি টার।</w>
গ ামী</w>
উপ শাখা</w>
ুল্ লা
রবীন্দ্র সঙ্গীত
পুরস্ কারে</w>
197 0-এর</w>
অধ্য ক্ষ</w>
নর ওয়ে
আদাল তে</w>
প্যারি সে</w>
সংশো ধন</w>
আবির্ ভাব</w>
জাহাঙ্গ ীর
একে বারে</w>
মধু সূ
একই ভাবে</w>
তদ ন্ত</w>
যৌগ িক</w>
সম য়েই</w>
কি. মি.</w>
যৌক্ তিক</w>
নিষেধা জ্ঞা</w>
সংক্ষে পে</w>
ল ং
ান -
ান কে</w>
বি জন
ক ''</w>
মি ং</w>
নাম ।</w>
সি তে</w>
নিয় োগ
গ ীর</w>
বর্ জন</w>
যা দু
6 3</w>
8 7</w>
7 8</w>
পর গণ
প্রা সঙ্গ
ত্ব ক</w>
শু নে</w>
আল ী,</w>
ব্র ড
নির্ বাস
অংশ টি</w>
7 %</w>
ক্রম শ</w>
স ক্ষম
ওয়া ট</w>
6 নং</w>
মৌ জা</w>
ফেল ার</w>
সদস ্য,</w>
ফার সি</w>
নিয়ন্ত্র ণের</w>
প্র ামা
প্রাণ ীদের</w>
আহমে দ,</w>
প্রকৌশ ল
শার ীর
প্রয়োজন ীয়
ভিত্ তি
জাদু ঘ
ম ঠ</w>
বরি শাল
ন মূলক</w>
নৈ রাজ্য
গর্ ভ
আশ রা
ইন্দো -
সমি তির</w>
অন্য দিকে,</w>
াম্ বিয়া</w>
প্রাই জ</w>
ভূমিকম্প ে</w>
বাষ্ প</w>
ম্যানে জার</w>
পঞ্চা য়েত</w>
নায়ে ক</w>
অবদান )</w>
ক্রু সে
ঋ ণাত্মক</w>
সংগী তের</w>
সোন ালী</w>
স্থায় ীভাবে</w>
বাধ্যতাম ূলক</w>
বি রোধী
ঘ ে
বিষ া
রো ম</w>
ভ িয়া</w>
ধার ায়</w>
ভ রের</w>
অন্য ান
কু য়ে
থাক বে</w>
সঙ্গ ী</w>
গঠ নে</w>
নাম টির</w>
তৃ ণ
আই ন,</w>
স্থান ,</w>
রি জার্
প্র চ্ছ
রাষ্ট্র ভাষা</w>
ইউ এস
এস সি</w>
নিক টে</w>
পু কুর
188 1</w>
বর্ ষে</w>
ওয়েব সাই
মুজি ব
অধ্যাপ ক।</w>
রাজ্য টি</w>
জান ায়।</w>
ট্রা ন্স
উদ্ভাব ক</w>
সত্ত্ বে
ভিয়েন ার</w>
মড েল
নিষ্ কা
মহাকা শ
সৈ কত</w>
ইন্দোনে শিয়ার</w>
প্র জন্মের</w>
ভেল ্
আসাম ের</w>
শাম সুল</w>
নাৎ সি</w>
গম্বু জ</w>
বেঙ্গাল ুর
সত্ত্বে ও,</w>
ব -
হ ই
এ ,</w>
বা বা
র ্য</w>
মা স
নি ও</w>
লে স</w>
ব্যা পার
প ত্ত
স কল
নি শ্চি
ন ষ্ট</w>
র ফ</w>
যে টা</w>
বি বাহ
ন গুলি</w>
পো স্ট</w>
টা স</w>
টা ওয়
লি প্ত</w>
8 %</w>
গু ণা
বি বর
কর্ম ীদের</w>
( মৃত্যু</w>
পরিচাল নায়</w>
ফল ন</w>
ড ঃ</w>
পর েও</w>
সম র্থ</w>
ভাষা বিজ্ঞানী</w>
মার্ চে</w>
সড় কের</w>
সু স্থ</w>
শাস্ ত্রের</w>
ারে ট</w>
জায় গা
পার্ব তী
ছোট গল্প</w>
য থা</w>
শ্রীলঙ্ কা</w>
শ্রীলঙ্ কার</w>
আপ নাকে</w>
ল্যাপট পের</w>
জাহাঙ্গ ীর</w>
সাহে ব</w>
তখন ই</w>
নরসিং দী</w>
দ্বন্দ্ ব</w>
শরণ ার্থ
অকাদে মি</w>
তত্ত্বাবধা য়ক</w>
সহ স্রা
উ ল
2 ।</w>
% ,</w>
গ িত</w>
গ্র ো
জা ই
উপ ে
য় নে</w>
চ ায়</w>
কু র্
পর পর</w>
ভ িক্ষ
ঘট েছে।</w>
পে শ</w>
চা ষ
ব্যা খ্যা
রাখ েন</w>
সংস্ পর্
সর্ব ত্র</w>
আলো চিত</w>
ব ার,</w>
ন্ স,</w>
16 শ</w>
আম লের</w>
বৃ ন্দ</w>
উপ জাতি
সীমা ন্ত
( আলাপ</w>
মার িয়া</w>
গায় ক।</w>
য় িং</w>
ফস ফরা
চলা কালীন</w>
চো খের</w>
ফ কির</w>
টাঙ্গ াই
সার্বভৌ ম
বার্লি নে</w>
ভূমিকম্প </w>
ল্যাপট প</w>
তত্ত্বাব ধানে</w>
কর্ম চারী</w>
সত র্ক</w>
ঐতিহাস িকভাবে</w>
ফেব্র ুয়ারিতে</w>
শিষ ্য</w>
তখন কার</w>
ইংরেজ দের</w>
উত্ত ীর্ণ</w>
মেহের পুর</w>
ফলশ্রু তিতে</w>
( রবীন্দ্রসঙ্গীত
জাহাঙ্গীর নগর</w>
(রবীন্দ্রসঙ্গীত )</w>
বি .</w>
িল ি</w>
ড ো</w>
য় তা</w>
দ নের</w>
ট েন</w>
রো মা
আ প</w>
ভূ ঁ
9 9</w>
গ ড়া</w>
আই নে</w>
ডা ই</w>
প ত্রে</w>
বার্ গ</w>
বু দ্ধ</w>
টা ওয়ার</w>
ইসলাম ে</w>
ক্ ত,</w>
নে হর
ধ্ব -
সম্প্র দায়
ঝ িল্
শিল ালি
দীর্ঘ তম</w>
ওঠ েন।</w>
রাম ানু
ম ধু</w>
আছ েন।</w>
অভি নীত</w>
আল ু,</w>
কো রিয়া</w>
ভবিষ্য ৎ</w>
পের ুর</w>
রশ্ মির</w>
রেজি মেন্ট</w>
অভ্যুত্থ ানের</w>
দুর ্য
ভট্টা চার্য</w>
আর্ কিমি
প শুর</w>
গীতিক ার,</w>
খলি ফা</w>
ইতো মধ্যে</w>
আম দানি</w>
সহিং স
অ্যা স্টের
তাল ুক
আগর তলা</w>
হস্তা ন্তর</w>
মির্ জা
প্রাই ভেট</w>
কমিশ নার</w>
আর্কিমি ডি
ব ৎ
প্র ু
দ কে</w>
ক্ষ য়
ল েন
হ তি</w>
য় েন</w>
থা কে
রো কে
7 4</w>
বিদ রা</w>
ক িয়ে</w>
কু ই
াল ির</w>
স ্যের</w>
লেখ িকা</w>
ডা য়া
ক্ লিক</w>
রাজনী তির</w>
ক্ষ তিক
ইতিহা স,</w>
শাহ ের</w>
নিউ টন</w>
বৈ শাখ
ত ব্য</w>
অধি ষ্ঠ
জাহা জ
মুসলি ম,</w>
বিস্ত ৃতি</w>
প্রি ন্স
মাম লার</w>
নে পাল</w>
হিন্দু ধর্মের</w>
র েনে
মারা ত্মক</w>
নিরাপ দ</w>
এক্স প্রে
রহ স্য</w>
নির্দেশ ক</w>
মঙ্গ ল
চিত্র শিল্পী।</w>
ধারণা টি</w>
পর্যট কদের</w>
অতি থি</w>
বার্সেলো নার</w>
অ্যা ন্ড্র
তাৎ ক্ষ
অনুচ্ছ েদ</w>
প্র বর্তিত</w>
হিমা চল</w>
রচয় িতা</w>
20 20)</w>
অবৈ ধ</w>
গ ্য
3 ।</w>
ড ।</w>
পর ে
ফ কি
্ লা
এক -
ে দের</w>
প্রা ঙ্গ
াম ্প
নিয় া
6 1</w>
ব্যা স</w>
অধ ীন</w>
9 ),</w>
ত ের
প্র সঙ্গ
ধর ার</w>
ক ম্ব
সে টের</w>
িকে ট</w>
প্রতি বর্ণ
দ ার,</w>
ঘা টা</w>
7 নং</w>
স ্যাম
স ্যু
জল প্র
পর্যা প্ত</w>
চর ্যাপ
বি ক্রম</w>
পা ট,</w>
লো কদের</w>
অঞ্চল ,</w>
187 1</w>
দল টি</w>
ভ ঙ্গ</w>
আফ্র িকায়</w>
ক্ত িকে</w>
আট ক</w>
মুজি বের</w>
গায় িকা</w>
মন্দি রে</w>
মৌসু মের</w>
আ মির</w>
ন ার্ড</w>
চাই তে</w>
ফর ম্যা
নৃত্য ের</w>
উপা চার্য</w>
নভেম্ব রে</w>
ছ ত্রা
গি র্জা</w>
সেখান কার</w>
ব্যা ন্ডের</w>
আর এনএ</w>
প্রেম ের</w>
প্রো ফেসর</w>
পি তামা
রয়েছ ে
ইউনে স্কো</w>
কাউন্সিল ের</w>
পর্যালো চনা</w>
; ইউনিয়নসমূহ</w>
ঝ ো
ঘ ্র
ার ও</w>
প ত্
নি ং</w>
ী ''</w>
এ সি
সং ক্র
জে ল</w>
ডি ভি
( প্রায়</w>
শী দ</w>
7 00</w>
পাল া</w>
ক ণা
রক্ষ ণা
মে হে
দশ মিক</w>
সক াল</w>
ফুট )</w>
রাম ের</w>
ঙ্ কর</w>
তার ই</w>
অনুসার ী</w>
জা পান
দখ লের</w>
ন্য স্ত</w>
ক ণার</w>
এ ড়িয়ে</w>
ব ন্য</w>
1 1টি</w>
এলাকা সমূহ</w>
199 0-এর</w>
মেট্র ো</w>
বিন্দ ুতে</w>
ভবিষ্য দ্
আ চার্য</w>
লিউ ব্ল
পলি টেক
ধা তুর</w>
উৎস বে</w>
পলা শ
উত্থ ান</w>
আব দুস</w>
শিকা গো</w>
বায়ো টিক</w>
বোলৎ সমান</w>
তখ নও</w>
উপ মহাদেশে</w>
প্রেক্ষাপ টে</w>
মেদিনী পুর</w>
সুইড েনের</w>
রক্ষণা বেক্ষ
পলিটেক নিক</w>
প ল
ম শ
7 -
ফ য়
বি উ
দ াল
বিষয় ।</w>
না টি</w>
ন তা</w>
সি .</w>
ঙ্গ ু
সি ঁ
সর ু</w>
দা য়</w>
ইউ সু
9 7</w>
পা য়ের</w>
রু জ
মহ ী
উন্ মো
পাল নের</w>
তী ব্র
বাড় তে</w>
ুয় াল</w>
প্রাচ ীর</w>
না কি</w>
ফল ক</w>
পা ড়ি</w>
নাই ট</w>
অ শ্ব
গৃহ যুদ্ধের</w>
দিয় েছেন</w>
িয় ানার</w>
মার্ চের</w>
এমন ভাবে</w>
ঘট ায়।</w>
হিন্দু ,</w>
হেল া</w>
মাহ বু
ইউ ক্লি
ভূ খণ্ড</w>
অর্ধ ে
রসায়ন বিদ।</w>
অনুবাদ ক</w>
সেপ্টেম্ব রে</w>
গা ঢ়</w>
ইন্দোনে শ
প্রবেশ ের</w>
খ িলা
মৌ খিক</w>
জিডি পি</w>
হিমোগ্লো বিন</w>
পেলিক ্যান</w>
সপ্ত দশ</w>
ক্যাম্ পা
লালমনির হাট</w>
বাস্কেট বল</w>
খিলা ফ
হ ং
গ ি</w>
স -
5 .</w>
পর িল
ভা স</w>
ওয় াল</w>
18 শ</w>
কা ঞ্চ
7 6</w>
শ য়ের</w>
গু ন</w>
নী ,</w>
ক্ষ মা</w>
ডা .</w>
স্ক ন্ধ
বাই জে
হলে ,</w>
ফোর্ ট</w>
বা ঁচ
এ রূপ</w>
সংঘ </w>
ক্লা স</w>
উঠ েছে</w>
পরি দর্শন</w>
কাহি নি</w>
187 6</w>
গণিত বিদ।</w>
সাংবাদ িক,</w>
শূ ন
দূর ত্বের</w>
দাঁ ড়িয়ে</w>
অ্যা পল</w>
ক ফি</w>
নিউক্ল িয়াস</w>
জ্যামি তি</w>
ভাইরা সের</w>
গণে শের</w>
স্ বর্ণ</w>
কন ফেডারে
সুর ক্ষিত</w>
তাপমাত্র ার</w>
কর্মসূ চি</w>
কোয়ার্ টার</w>
চন্দ নাই
কর লেন।</w>
তেহর ানের</w>
মু গ্ধ</w>
অক্টো বরে</w>
শেষা ংশ</w>
পিএইচ ডি</w>
প য়
আ কর
নি টি</w>
হা য়</w>
অন িয়
কা দের</w>
ঈ দ</w>
খ নি</w>
নাম ে।</w>
মু না
মে ল</w>
ণ ীর</w>
স্ট ক</w>
ট িয়া</w>
মো ল্
6 7</w>
কু য়া
ম্ ম
সব ার্
বাড় ি
প্রতিষ্ঠ ান।</w>
অভি যুক্ত</w>
এ গুলির</w>
ওয়া ই</w>
ফরা সি
মাই টো
189 1</w>
হ ঠা
উদ যা
( 2)</w>
লেখ কদের</w>
শহর টির</w>
দীর্ঘ দিন</w>
রা শি</w>
ত লী</w>
উপ সাগর</w>
তাত্ত্ বি
অধি নায়
ব্যবহার িক</w>
মূর্ তি
প্লা জ
চলচ্চিত্র টি</w>
পোল ্যান্ড</w>
উৎ স।</w>
এখান েই</w>
চ ুরি</w>
প্রত্যা বর্তন</w>
সু ফি</w>
অভি জাত</w>
সাম্প্র দায়
স্বা মীর</w>
এপ্র িলে</w>
ফাই নাল</w>
মিত্র ,</w>
আ ধিক
মিথ স্
রক্ তে</w>
মজু মদ
পার েনি।</w>
ক নিষ্ঠ</w>
মৌল ভী
জি জ্ঞা
সিকি ম</w>
বি চারের</w>
পর্তুগ ালের</w>
অপরি হার
বুরু ন্ডি
যাতা য়াত</w>
( ভারত)</w>
নাই ট্রো
মাদরা সা</w>
জেরু জাল
নেত্রকো ণা</w>
করতো য়া</w>
ণ ো
গ ার
বিষ ু
কর ো</w>
যু ব
রাজ ্
ল রে
স্ট ্রা
ভাষ ণ</w>
রা গ</w>
6 9</w>
দেখ ার</w>
6 00</w>
টা কে</w>
চা পের</w>
উ লু
সর্ব দা</w>
নাট কে</w>
আলা স্
স্ক র</w>
8 নং</w>
সংখ্যা ।</w>
দা প্ত
গি র্
বর্ ষণ</w>
প্রতি স্থাপন</w>
ফেল ো</w>
প্ল িকে
রাজ তন্ত্র</w>
188 4</w>
কখ নো
সর্ব শ্রেষ্ঠ</w>
পরিকল্প নার</w>
গোল টি</w>
পেয় েছিল।</w>
ইউ এস</w>
196 0-এর</w>
প্রের িত</w>
সাধ ক</w>
উদ্ধ ৃত</w>
চাই লে</w>
বুদ্ধি জীব
ন মুনা</w>
মত ো,</w>
মিথ ্যা</w>
জীবা ণু</w>
ঔপন্যাস িক।</w>
বি ভিন্ন
পর্বত মালার</w>
কন্ট ্র
টেক্ সা
তুষ ার
মাধ্য মেই</w>
জীবন ানন্দ</w>
কলেজ িয়েট</w>
বণ্ টন</w>
ইয়াহ িয়া</w>
মেসো পট
উল্লেখযোগ্য ভাবে</w>
আত্মহত্য া</w>
বিজন েস</w>
মেসোপট েম
5 -
6 –
ক্ </w>
স ই</w>
দে র
শ কে</w>
ার কে</w>
তা -
বি ট</w>
বে ঁ
আ মান
উ চি
নির্ ম
হ ারা</w>
জি ং</w>
রা শি
দ্ব ার
মে ন্ড
ঋ তু
বো কা</w>
ভ িয়ার</w>
খেল ে</w>
ঘো ড়া
সব জি</w>
ান গঞ্জ</w>
অংশ ,</w>
লক্ষ ্য
ব্যা সার্
কিল ো
সু পরিচিত</w>
188 6</w>
উল্লেখ ্য,</w>
নিয় েছিলেন।</w>
14 টি</w>
ভাই য়ের</w>
13 টি</w>
ধ ন্য</w>
বাস্ত ু
পুরা ন</w>
স্মৃ তিক
ভা ঙ্গা</w>
ইলেকট্র নের</w>
স্টে শনের</w>
সুই স</w>
নগর ীর</w>
মণ্ড ল</w>
হয়েছিল ো।</w>
শর ীর</w>
বু ধের</w>
ফিলি পাই
খাল েদ</w>
সালাহু দ্
মতি উর</w>
উৎ সর্গ</w>
স্রো ত</w>
তেজস্ ক্রিয়</w>
হিলবে র্ট</w>
শঙ্ক ু</w>
ক্ট রেট</w>
শী ঘ্র
রুজ ভেল্
2 -
কর ,</w>
ট ম</w>
মা তার</w>
পরি ণ
না ন্দ
সি সি
নির্ মি
অ জ্ঞ
ন িক্
ব রা</w>
কর িয়ে</w>
ন ভাবে</w>
অ ভাবে</w>
স ীন</w>
শা য়ে
আর ্য</w>
ন্ সে</w>
গণ ের</w>
ন্ট াল</w>
( যার</w>
হ ক,</w>
অংশ কে</w>
জীব বিজ্ঞান</w>
শো নার</w>
মি জো
এক দল</w>
জাম াল</w>
করত ে।</w>
শিক্ষ া,</w>
বার ো
বাহ রাই
উঠ তে</w>
টাই ল</w>
গ্রা ফ</w>
186 5</w>
187 7</w>
187 5</w>
187 8</w>
প্রেসিডে ন্ট
প্রাণ ী
অধি বাসী</w>
ন্ন ান</w>
এলাকা টি</w>
লাল নের</w>
ফিলি প</w>
রহ স্য
মঙ্গ োল
আউ ট</w>
মাঠ ের</w>
বো য়াল
শৈল ীর</w>
অধ্যা য়</w>
হো সেন,</w>
তৈরি তে</w>
নক্ষ ত্র</w>
গেম সের</w>
গু চ্ছ</w>
মিউজ িয়াম</w>
ইহুদি দের</w>
স্পর্ শ</w>
সজ্ জিত</w>
সম্পর্কি ত।</w>
ম্যান চেস্টার</w>
স্বেচ্ছা সে
সংস্পর্ শে</w>
পরিল ক্ষিত</w>
হঠা ৎ</w>
গ ৈ
ই স্
ভ য়</w>
ভা ন</w>
সি ন
ী ব</w>
ওয় াল
লি ,</w>
গ ন্ত
ক্ কা</w>
রি ং</w>
যু গা
প্র য়া
ন তু
রু প</w>
সরকার কে</w>
বী রের</w>
7 ),</w>
উল্লেখ িত</w>
ব্র ত</w>
দ ণ্ড
নিউ জ</w>
চিত্র া
কর ত,</w>
189 2</w>
কর ছিলেন।</w>
জন্ম স্থান</w>
পেক্ষ া</w>
প লি</w>
জমি তে</w>
পশ্চিমবঙ্গ ে</w>
বার বার</w>
পর্ব তের</w>
বিন্দ ুর</w>
শাস্ তি</w>
অগ্র ণী</w>
কাউন্ ট</w>
মাম লায়</w>
ফ্রা ঙ্ক
ক্রি স্ট
মেডিক ্যাল</w>
গণি ত,</w>
নামা জের</w>
ডল ার।</w>
কিউ বার</w>
প্রা সাদ</w>
ফিলি স্তি
কু মারী</w>
লিখ েছেন,</w>
স্ কাউ
অবলম্ব ন</w>
ইথিওপ িয়ার</w>
ত্রিপুর ার</w>
কর বেন।</w>
অসু স্থ
আ মাকে</w>
প্রতিদ্বন্ দ্ব
মালয়ে শিয়ার</w>
নারী বাদী</w>
পর্তুগ াল</w>
জি উসের</w>
ক্যার িয়ার</w>
পারেন নি।</w>
ভার্জি নিয়া</w>
কৌতু কা
হানা দার</w>
সূক্ষ্ ম</w>
খতি য়ার</w>
খন্দ কার</w>
রশি দ</w>
মর ণো
সর্বা পেক্ষা</w>
ও র
কৌতুকা ভি
ত ন্
ঊ র্
'' ।</w>
ে ট</w>
হ ু</w>
অ মি
নে তি
8 1</w>
কে শ
মো .</w>
ডি ম</w>
মৃ ত
বন্ধ নে</w>
রি খ</w>
টে ন্ট</w>
উপ করণ</w>
দে বের</w>
4 %</w>
লাই ভ</w>
প িয়ে
হ ত,</w>
আলো ক</w>
) -এর</w>
য় ার,</w>
15 টি</w>
বয় সের</w>
সূ ত্রের</w>
দুর্ বল
শতা ধিক</w>
শব্দ ,</w>
ব্যব সার</w>
বিল ,</w>
( অর্থাৎ</w>
চো খ</w>
বিহ ারী</w>
201 1,</w>
ব্রাজিল ীয়</w>
ডল ারের</w>
বীর ভূ
আ বেদ
গঠ িত,</w>
মক্ কা</w>
খাঁ র</w>
বিএন পি</w>
আ সে,</w>
স নদ</w>
প্রত্যে কটি</w>
কেম ব্রিজ</w>
সাউ থ</w>
কণ িকা</w>
প্রশ স্ত</w>
রক্ষণ শীল</w>
ই স্টার্ন</w>
এলিজাবে থ</w>
ফিল ো
জ হির</w>
স্থ গিত</w>
বো য়িং</w>
ত ত
ূ ল</w>
ট টি</w>
আ মা
স ঙ্
ব না
, ''</w>
আ ঙ্গ
বে লি
চি ং
কা প্
গ লা</w>
কর্ তা</w>
বল িত</w>
যুদ্ধ ,</w>
দ োর</w>
র বি</w>
ভে ঞ্চ
ভাষা কে</w>
রে জা</w>
ডা ঃ</w>
সংখ্যা কে</w>
পো ষণ</w>
ঋ তু</w>
শহর গুলির</w>
187 3</w>
187 2</w>
বিল ম্
187 0</w>
5 ,000</w>
তত্ ত্বে</w>
মো হাম
দার্ জিল
শ্রেণ ি</w>
জ্যো তি</w>
মুহাম্ মাদ
বাদ শাহ</w>
অক্ষ র</w>
সৃ জন
দর বার</w>
প্রকৃ তি
সন্ত ু
প্রাচীন কালে</w>
ক্লি নিক</w>
পৌর সভার</w>
সঙ্গীত শিল্পী।</w>
ওবা মার</w>
বেলজ িয়াম</w>
থানা কে</w>
ঘ ড়ির</w>
অভি যাত্রী</w>
বৃষ্টি পাতের</w>
ফল স্বরূপ</w>
শাহ জাহান</w>
পর পরই</w>
স্টু ডিও</w>
বৈঠ ক</w>
ৈ খিক</w>
মেশি ন</w>
টোকি ও</w>
আ পেল</w>
মতো ই</w>
সিদ্ দিক
ইউসু ফ</w>
কাপ্ তাই</w>
ব জ
2 ,
9 .
হ ।</w>
- তে</w>
তা )</w>
জা ফ
িক াল</w>
সর ো
ব চ্চ
দি ত।</w>
সম ানের</w>
বৃ ত</w>
ঘট তে</w>
ট িকার</w>
সী মার</w>
সহ -
বর গু
প্রতি রক্ষ
প লার</w>
মা দার</w>
তিক ,</w>
সার্ কি
ন ানা
চা পে</w>
কম িয়ে</w>
সুর মা</w>
শিক্ষা জীবন</w>
ইউরোপ িয়ান</w>
186 2</w>
প েলে</w>
শ ুল্
উদাহর ণ।</w>
ব্ল কের</w>
শূ ন্য
চলা চল
বৃ ষ্টি</w>
স ত্তা</w>
অস্ট্র িয়া</w>
মঞ্চ ে</w>
ফ টিক
মেয়া দে</w>
অ ্যানি
প্যারি সের</w>
নাগর িকদের</w>
উপকূ লের</w>
শাম সু
মেক্সিক োর</w>
ই লিশ</w>
কো রিয়ার</w>
ভিয়েত নামের</w>
অংশ গ্রহণের</w>
শ্রেণি তে</w>
ব্যবহারকার ীদের</w>
গেল েও</w>
যেমন ঃ</w>
স্টেড িয়াম,</w>
আওতা ধীন</w>
সাঁও তাল</w>
বিপ্লবী ।</w>
অ মর</w>
দিবস ।</w>
ঔষ ধ</w>
পরস্ পর</w>
মিয়ান মারের</w>
পল্ লী</w>
দফ তর</w>
নিউক্লিয়া সের</w>
ালে খ
বন্য প্রাণী</w>
অধীন স্থ</w>
স্মি থ</w>
ইক বাল</w>
অধিষ্ঠ িত</w>
র শীদ</w>
প্রতিদ্বন্দ্ব ী</w>
ঘ </w>
5 0
বা চ
খ িল
দে হ
্ ম</w>
ঘ ুর
হা টি</w>
কার ও</w>
নাম ,</w>
ছিল ;</w>
'' (</w>
ইউ রে
পুর া</w>
ান রা</w>
ভাষ িক</w>
লেখ া
লেখ ায়</w>
দা ন্ত</w>
লেখ কের</w>
পর রাষ্ট্র
ব েন,</w>
ত েন,</w>
এ ন্ট
য তী
দ ারি</w>
8 ),</w>
ধর ণের</w>
ফে জ</w>
ডে ই
বে গের</w>
জ ্যে</w>
; দ্য</w>
বিধ ি
বঙ্গ ে</w>
ম ার,</w>
গ তিতে</w>
আন তে</w>
কবি তায়</w>
15 ই</w>
188 0</w>
শিরো নামে</w>
অঞ্চল কে</w>
অ্যাল ান</w>
পৃষ্ঠ ে</w>
গে জ</w>
ব্যা বিল
মিশ রে</w>
বি এম</w>
ইয় েম
লোক জন</w>
পুরা ণ
জিল া</w>
শীর্ ষে</w>
দীর্ঘ স্থায়ী</w>
আফ গান</w>
মে সির</w>
গ ম্ভ
প্রব ণ
প্রশ্ নের</w>
টার )</w>
পা ড়া,</w>
উর্ বর</w>
ব লে,</w>
নিউট্র নের</w>
ৃ ঙ্খ
ট্যা ক্
প্র য়াত</w>
মাইক্রো সফ
সু স্পষ্ট</w>
সাফল ্যের</w>
দৈ নন্দ
সম্রা ট।</w>
পৌরসভা ,</w>
রাজধান ী।</w>
বঙ্গোপ সাগর</w>
পোল ্যান্ডের</w>
অস্তি ত্ব
অস্তি ত্বের</w>
ম্যাট্র িক্স</w>
ইলেক্ট্র ন</w>
জিনি স</w>
গের িলা</w>
সনা তন</w>
হাঙ্গের িয়ান</w>
ম্যাগা জিন</w>
প্রস্তু তি</w>
আক বরের</w>
ক্রোমোজো ম</w>
যন্ত্রপা তি</w>
জীব দ্দ
আল ফ্রেড</w>
এ ইসব</w>
বাস্ত বায়ন</w>
যৌথ ভাবে</w>
ডব্ লিউ</w>
দাপ্ত রিক</w>
অ্যা প্লিকে
কখনো ই</w>
শীঘ্র ই</w>
দৈনন্দ িন</w>
; ;</w>
4 ।</w>
মা উ
6 .</w>
কা প
; এই</w>
মু র</w>
শা হা
চ ুর</w>
ধ ীর</w>
ম াল</w>
স নে</w>
স্ত ।</w>
ভাষ ্য
প্ লো
ম পুর</w>
কিছ ুর</w>
জেলা টির</w>
ন ারি</w>
সব ই</w>
কে জি</w>
রূ পের</w>
স্ট ্যান
নে য়ার</w>
সক ো</w>
দা স,</w>
ভো টা
নিবন্ধ ন</w>
পা ইন
যা চ্ছে</w>
শো ষণ</w>
ইতাল িতে</w>
পূর্ব ক</w>
বাজ ার।</w>
তাপ ীয়</w>
সু কুমার</w>
খাল ী,</w>
পরিমা পের</w>
2 50</w>
বাগ দা
চিন্ তার</w>
নে পোল
জড় িত।</w>
পুনর্ গঠন</w>
ফিলি স্
যা চাই
লাভ জনক</w>
বাতা য়ন</w>
সম্প্র সারিত</w>
ক্রি স্টো
জ্যামাই কার</w>
বাসি ন্দা</w>
ডে ভেল
গ ারো</w>
সংযো জন</w>
ভূমধ্য সাগরীয়</w>
গ্লো বাল</w>
স্মৃতিসৌ ধ</w>
মুন্সী গঞ্জ</w>
নরওয়ে জ
মোহাম ে
3 -
কা বা
বে ক
অন ূ
াল ো</w>
ক্ লে
মি ন</w>
জ াল</w>
রি টি</w>
পার বে</w>
ত্ত রের</w>
ধ ির</w>
পি )</w>
কাল ী</w>
র িয়া
হ চ্
পৃ </w>
শী তের</w>
স্তা দ</w>
মূল ্যের</w>
ারা গু
ভা ণ্ড
তি পূর্ণ</w>
জ্য ে
ঁ চু
10 0
16 টি</w>
পরি মাণ
ছা ত্রী</w>
রেল ের</w>
! ক্রম</w>
বিভ ্রা
অঙ্গ </w>
সন্ ধ্য
ঐ ক্য
সো নার
শ িয়াল</w>
বই টির</w>
ো ধন</w>
ঘোষ ণার</w>
কাঠাম োগ
হার্ ট
ব্ল ু</w>
সন্ দ্বীপ</w>
ক্রি প্
ও ল্ড</w>
সাত কান
আজ ম</w>
জনগণ না</w>
গ ার্ড</w>
ক্য ুরি</w>
বি বর্তন</w>
ফ্যা ক্ট
কাজ টি</w>
সা হা</w>
বিশেষ ায়িত</w>
সমী করণের</w>
মন সুর</w>
আরো প</w>
গঙ্গ ার</w>
স্টে শনে</w>
বা ঙ্গাল
রাজধান ীর</w>
আয়ো জক</w>
মেয়ে দের</w>
অংশ গ্রহণকারী</w>
প্রতি শ্রুতি</w>
হিমোগ্লো বি
স্বর্ণ পদক</w>
প্রসে সর</w>
প্রভৃ তি।</w>
ডা ক্তার</w>
হাট হাজারী</w>
উত্তোল ন</w>
রক মের</w>
ডেমোক্রে টিক</w>
ঝাল কাঠি</w>
সক্ষম ।</w>
কন্ট্র োলার</w>
সং বলিত</w>
চ ম
ই ছ
িক ন</w>
ন্ তি
ার াম
ও ড়
হ বে
পা টি
আ গ্র
কর্ ণ</w>
ম ভাবে</w>
ছা ড়
প্রতি বছর</w>
8 00</w>
লো হার</w>
রাজন ৈ
তো ,</w>
এর ই</w>
লক্ষ ণ</w>
পাঠ ান।</w>
উপন্যা স,</w>
নির্ দেশে</w>
প্রকাশ কাল</w>
বাল িয়া
মনো বিজ্ঞান</w>
কৃষ কদের</w>
দখ ল
অভ য়ার
186 7</w>
চী ন,</w>
হাম লার</w>
আলা উদ্দিন</w>
ন্স িয়াল</w>
গী তি</w>
প্রয়োজন ে</w>
সুবিধ ার</w>
সর ী
বর্ ষা
মূর্ ত</w>
তড়ি ৎ
সু নীল</w>
এইচ .</w>
বর্ষ সেরা</w>
এ টাই</w>
আ চ্ছা
নিকো লাস</w>
লিপি তে</w>
উইকি মিডিয়া</w>
নি চু</w>
26 শে</w>
হাই কোর্ট</w>
প্রথ মাংশ</w>
হাতি য়ার</w>
কিলোমি টারে</w>
স্মৃতি স্তম্ভ</w>
রাস্তা য়</w>
খ্রিস্টপূর্বা ব্দে</w>
ফ্ল য়েড</w>
ফটো শ
ক্ষুদ্র তম</w>
সেলস িয়াস</w>
অ্যালবা মের</w>
বিধ্ব স্ত</w>
সম্ পাদি
প্রতিদ্বন্দ্বি তা</w>
পার্শ্ ব</w>
পেট্র োল
পৈ তৃ
মধুসূ দন</w>
টেক্স টাইল</w>
ভবিষ্যদ্ বাণী</w>
ফিলো সফ
ইছ াম
সরী সৃ
পৈতৃ ক</w>
0 -
ফ ,</w>
ঋ ষ
আ সা
ত কে</w>
বে স</w>
ন ু</w>
ন ান</w>
ুল ার</w>
মধ্য ে।</w>
আ সি
পুর ী</w>
সু খ
জি নের</w>
ত রা</w>
গো ত্র</w>
সি পি
জীব ন্ত</w>
সে বার</w>
সরকার ি
ন তম</w>
গু য়া
চে তন</w>
বু ধ</w>
টা কার</w>
হে রে</w>
তুল তে</w>
ফে য়ার</w>
সৈ ক
মস ৃ
মাত্র ায়</w>
কোম্প ানী</w>
বাল ক</w>
অ স্থি
রেখ েছিলেন।</w>
ওঠ া</w>
শহী দ
185 8</w>
কাহি নীর</w>
দুই জন</w>
ম দ,</w>
দু টো</w>
এক্স চে
শরী য়
সিনে ট</w>
রাজা দের</w>
মেট্র িক</w>
ছা গল</w>
নিউক্ল িয়ার</w>
হাসি নার</w>
কণ্ঠ শিল্পী</w>
ইল িয়াস</w>
সম্পূর্ণ ভাবে</w>
ত্র য়ো
জে ক্ট</w>
বংশা ণু
বি তরণ</w>
ই কোন
য়েড ীয়</w>
আব শ্য
ওয়াল্ টার</w>
কাশ্ মী
দীঘ ি</w>
বাঁকু ড়া</w>
প্রয়োজনীয় তা</w>
অ্যাস্টের িক্স</w>
মাইটো ক
ত্রয়ো দশ</w>
মাইটোক ন্ড্র
ম ণ
ভ ্য
ু কে</w>
সং লা
ফ ট</w>
হা ব
কি ল</w>
এ থে
প্র কার
ঙ্গ ার</w>
উ ড</w>
ভার ের</w>
বর্ত মান
ডি উ
প টার</w>
আস নে</w>
বু য়
বেশ ে</w>
ক্র িয়ার</w>
আর্ ক
! জাতীয়</w>
শু ক্র
বি গত</w>
সহ যোগ
সাহিত্য ,</w>
1 -এর</w>
আ ঘা
কর্তৃ ত্ব</w>
রাজনীতি বিদ
জল ীয়</w>
বংশ ধর
খে য়ে</w>
মাঝ খানে</w>
পান ীয়</w>
প্র বৃদ্ধি</w>
রূপ ।</w>
টেলি যোগাযোগ</w>
উইল সন</w>
বর্ত মানের</w>
নজ র</w>
বান ানো</w>
গিয় েছে।</w>
ফার্ স্ট</w>
ঘো ড়ার</w>
উদ্য ো
শং কর</w>
ধ্রু ব
মায় ান
স্ব রূপ,</w>
আচর ণের</w>
ধারাবাহ িকভাবে</w>
কার িতা</w>
মে ন্টের</w>
শৃ ঙ্গ</w>
পী ড়
কাউ কে</w>
সংক্রম ণের</w>
উন্নয় নশীল</w>
হলো ,</w>
কর েনি।</w>
অণু জীব</w>
কলম্ বিয়া</w>
ব লেই</w>
আংশ িকভাবে</w>
কোচ বিহার</w>
বে কন</w>
চট্টগ্রাম -
স্বপ্ ন</w>
পরিবহ নের</w>
দেখু ন।</w>
বি রামপুর</w>
সরি ষা
ফৌ জ
টু কু</w>
ম্যাগ নে
20 19)</w>
সুপারি শ</w>
ডেস্কট প</w>
প্লে ব্যাক</w>
স্ট্যান্ড ার্ড</w>
চাঁ পাইন
আইনস্টাই নের</w>
অনূ দিত</w>
চাঁপাইন বাব
বি ঘ
ট াল
আ ক্
7 ই</w>
বি ড়
ে শ</w>
ব ো</w>
না স</w>
সম তা</w>
জি ন
ভূ ত।</w>
গা ড়
শে দ</w>
কো নো
স ারের</w>
পার েন,</w>
উচ্চ তার</w>
দ ম্প
পা য়,</w>
আল ুর</w>
সে মি</w>
ন গুলো</w>
গ্রাম া
গর ী</w>
আমের িক
তা বাদ</w>
ব্র হ্
উন্ন তির</w>
! রাজনৈতিক</w>
ম কর</w>
প্রো টো
দিয় ে।</w>
খ্রিস্ট ধর্ম</w>
আদ ম</w>
সুর ে</w>
বার ু
অধি বেশ
186 8</w>
187 4</w>
10 ,000</w>
ব ক্স</w>
থ মাস</w>
185 0</w>
পাহা ড়ে</w>
অ টো</w>
সদস্য পদ</w>
জ্যোতির্ বিজ্ঞানী</w>
সৈয় দপুর</w>
ফিল্ ম
চলচ্চিত্র ,</w>
ঢাকা ।</w>
হিল িয়াম</w>
ব্রাহ্ম ণ</w>
সুই ডেন</w>
নি খুঁ
দৃ ঢ়
ইথিওপ িয়া</w>
মহাকা ব্য</w>
দার্শনিক ,</w>
নিয় োগের</w>
শীর্ষ স্থানীয়</w>
কু মারের</w>
প্রতিরোধ ের</w>
হস্ত ক্ষেপ</w>
সিদ্ধা ন্তে</w>
সেনা বাহিনীতে</w>
গর্ ভে</w>
আকর্ষ ণীয়</w>
ফুস ফু
রাফা য়েল</w>
পরি প্রেক্ষিতে</w>
কান্দ ি</w>
যা চাই</w>
অ্যা পোলো</w>
জব্ব ার</w>
সাম্প্রদায় িক</w>
প্রা গৈ
প্রাগৈ তিহা
প্রাগৈতিহা সিক</w>
য </w>
ত ;</w>
অ বি
প িক
প্র মা
র েন
বে র্
ক তার</w>
( একটি</w>
ু মি
ক্র স</w>
শা ,</w>
প্রতি যোগ
3 রা</w>
শিল া</w>
জ াম্
ম ন্ট
উদ্ ভা
গু ঁ
গ ড়া
চা কর
জেলা '''</w>
হা ফি
জেলা কে</w>
সো না</w>
ডা টা</w>
কো পার্
সমা বেশ</w>
মূল দ</w>
উদ্ দী
জো ন</w>
পাঠ ক</w>
এক মত</w>
নিবন্ধ িত</w>
সিল ি</w>
ত্রি শ</w>
উদ ার
গে ট</w>
ভূমি ।</w>
পট িয়া</w>
ভূ গোল
ইন্ড া
বিভা জনের</w>
সা ভার</w>
(198 6)</w>
ঘটনা টি</w>
চাল ানোর</w>
প্রণ ীত</w>
অধ্য য়
গিয় েছিলেন।</w>
কঠ ি
কমা ন্ড
পর্বত মাল
ন য়টি</w>
সং গৃহীত</w>
ভবিষ্য তে</w>
সীমা ন্তের</w>
জরি পে</w>
আজি জ</w>
খ্রিষ্ট পূর্ব</w>
স্থাপ ত্যের</w>
স্বয় ং</w>
জ্বাল ানি</w>
বিষ্ ণু</w>
সম বায়</w>
( অধুনা</w>
পরি স্থিতিতে</w>
উপ ভোগ</w>
সন্ন্যা সী</w>
বাছা ই</w>
ক্যান্ সার</w>
কেনে ডি</w>
ক্যান্টন মেন্ট</w>
স্থান ীয়ভাবে</w>
চ্যালে ঞ্জ</w>
আইই ই
ল গ
ত র্
ল তি
বা ং</w>
রা ।</w>
বি লা
ং স</w>
ট ান</w>
না ড়
কি নে</w>
দা শ</w>
নিয় েছে।</w>
ধার ণ
ুর ির</w>
লো ড</w>
অ্যা ন</w>
পি .</w>
উ ক্তি</w>
িয়া )</w>
বা হু
ভ দ্র
সহ জ
খা ওয়ার</w>
হে পা
মি শে</w>
কৃষ িকা
েন ৷</w>
তর মু
186 3</w>
অস্ ত্র
হাস ্য
185 9</w>
185 4</w>
প তি।</w>
ন্যা টো</w>
এক দিনের</w>
বন ্যা</w>
যথা য
চলা কালে</w>
মানুষ দের</w>
সুর কার।</w>
যুক্ত রাজ্যে</w>
পুরো নো</w>
ভিয়েন ায়</w>
ট্রে ড</w>
ব্যাং কিং</w>
রপ্ত ান
আই ভি</w>
ই চ্ছা
আর ম্ভ</w>
মেই নের</w>
উৎসা হ</w>
বৌদ্ধ ধর্ম</w>
পাহাড় ী</w>
স্মর ণীয়</w>
ও মর</w>
উপাস না</w>
শিকা গো
এ ভাবেই</w>
তেজস্ ক্রিয়
শাহ জালাল</w>
কাম ্যু</w>
মানিক গঞ্জ</w>
রহমান কে</w>
মেলা ন্দ
দিল্ লিতে</w>
প্রতিবেদ নে</w>
জীবি কা</w>
শিল্প কলায়</w>
(ভাষা )</w>
বছরে রও</w>
মোশার রফ</w>
অনূর্ ধ্ব-
সংক্র ামক</w>
বরগু না</w>
লেখ ালেখ
জীবদ্দ শায়</w>
কাপ ড়</w>
ক্রিস্টো ফার</w>
সু য়েডীয়</w>
যথায থ</w>
খ ল
ড গ
ধ ো
এ ক্
শ ক</w>
ত লা
ম নি
না ;</w>
ব্য ার
নিয় ান</w>
শ শা
মে ম
প ীর</w>
প ্যাল
9 4</w>
দা য়ে</w>
যু গো
গা ঙ্গ
কাল ে,</w>
প্রতিষ্ঠ ানে</w>
দেখ ান</w>
দেখ ায়</w>
শিল ং</w>
ন্ট ,</w>
ন বি</w>
ডা কা
খেল তে</w>
ত্যা গের</w>
হু দা</w>
মাল ্
লাই নে</w>
ব্ লু
খু ন</w>
ন ্যান
বছ র,</w>
'' -এর</w>
জল দ
ধা পে</w>
ভো টার</w>
ক্র ীত
; )।</w>
ধার া,</w>
মসজি দে</w>
! সংসদ</w>
সময় কার</w>
হার্ ট</w>
পঞ্চ দশ</w>
প্রতী ক।</w>
প্রতিষ্ঠা কাল</w>
প লস</w>
জ নিত</w>
198 0-এর</w>
184 8</w>
মৌসু মী</w>
ফস লের</w>
কাব্য িক</w>
পথ িক
গান ো
অস্ট্র িয়ান</w>
! সংসদীয়</w>
রা সেল</w>
( পুরুষ
উত্তর প্রদেশ</w>
গ্যাল িলি
মিশ্র িত</w>
গ্রি সের</w>
সেক্ট রের</w>
প্রক্রিয়া করণ</w>
যক্ষ্ মার</w>
পর্তুগি জ
হাসপাতাল ,</w>
উপত্য কায়</w>
আফগানি স্তান</w>
সংঘর্ ষের</w>
সিকি মের</w>
কানেটিকা টের</w>
দ্রাঘি মা
অল ৌ
জন্ম গ্রহণকারী</w>
পদা তিক</w>
সার্ব জনীন</w>
আয়ার ল্যান্ডের</w>
গুজ রা
জানুয় ারী</w>
সরি ষ
ডব্ লিউ
ঠিক ানা</w>
স্বায়ত্ত শাসিত</w>
প্রীতি ল
;!--আশ-আনি সু
সাম্য বাদী</w>
স রাইল</w>
তা ড়িত</w>
আশু তোষ</w>
আইনজীব ী,</w>
নির্ভর শীল।</w>
প্রফুল্ ল</w>
ভাস ানী</w>
চে য়েও</w>
দেওয় ানগঞ্জ</w>
তন্ মধ্যে</w>
বিশ ৃঙ্খ
পথিক ৃ
;!--আশ-আনিসু --</w>
ম থ
% ।</w>
াম ে</w>
ত্ তা
তা স</w>
স েন।</w>
উ পরি
কার ি</w>
পর বর্
মি .
ফ েন</w>
( 1</w>
9 6</w>
ম জি
দ িয়া</w>
মৃ ত্ত
মৃ ৎ
শে ম</w>
শে ই</w>
বি চিত্র</w>
ক ম্
প্র বাহ
আয় ন</w>
ই ভে
মহা বীর</w>
কর ানো</w>
গ্রে ড</w>
কার্ জন</w>
বেশি ,</w>
ছ ন্দ</w>
সি ডি</w>
বর্ জ্য</w>
187 9</w>
পেয় েছে</w>
সংস্কৃ তি,</w>
ক্রো য়ে
সং গ্রামে</w>
দৃষ্ টিতে</w>
ছাত্র া
বান ান</w>
অব রোধ</w>
হিন্দু দের</w>
গৌ ড়</w>
বুদ্ধ ের</w>
চলচ্চিত্র ।</w>
ী করণের</w>
অঙ্গ রাজ্যে</w>
সাময় িক
ভ ্</w>
করে ৷</w>
সংস্থা ।</w>
দ্বি গুণ</w>
ফের ার</w>
0 0,000</w>
বিশ্লেষ ণের</w>
বর ফের</w>
রেল ওয়ের</w>
দে য়াল</w>
মালয়ে শিয়া</w>
ব্যাট াল
ইলি নয়</w>
চ্যাম্পিয়ন শিপ</w>
ইব্রা হিম</w>
মস্তি ষ্
সৃষ্টিক র্
ভিক্টো রিয়া</w>
কপি রাইট</w>
তীর বর্তী</w>
আইসোটো প</w>
ফার েন্স</w>
কার্য ক্রমের</w>
পত্ত ন</w>
তালুক দার</w>
ব ণ
4 –
ান টি</w>
শ নি
পা ত্র</w>
ুর ি
ভি ন
বে কার</w>
দ ীর</w>
অব তার</w>
কে ও</w>
কৃ ত
শি ং</w>
খ ন্ড
দা য়ের</w>
ক্ষ তির</w>
পে রে</w>
রু ট</w>
শিল ্
সা ড়া</w>
কু টির</w>
জান ায়</w>
খা তের</w>
ফি জ
স ৎ</w>
হ ানি</w>
17 শ</w>
ী গঞ্জ</w>
উত্ত র,</w>
প্রয় োগ
সার্ বিক</w>
আ ধা
কম ,</w>
কর্ ষণ</w>
এস েছিলেন।</w>
ফা য়ার
পরি ধি</w>
চাঁ দ
মূল ধন</w>
য় েলের</w>
রাজ্য )</w>
পরাজ য়ের</w>
বিদ্রো হ
উত্তর- পূর্বে</w>
মেঘ </w>
ঐতিহ্য গত</w>
নির্দেশ া
বিহ ীন</w>
( 2য়</w>
25 শে</w>
বিদ্যা ,</w>
নির্ভর শীল</w>
আবাস স্থ
হ্র দের</w>
স্ত্র ীর</w>
বাতা সের</w>
চর্ চার</w>
বস বাসের</w>
পো লিশ</w>
বিকা শে</w>
সাথে ও</w>
জীবা শ্
অ জ্ঞা
বংশ ধর</w>
আওরঙ্গজে বের</w>
আফগানিস্ত ানে</w>
পণ্ডি তদের</w>
ডেন মার্
মহা সচিব</w>
অয় লার</w>
দারিদ্র ্য</w>
ল্যা বরে
িক্ষে প</w>
যান বাহন</w>
বিক্ষো ভ</w>
ড্ ড
বাহ ্যিক</w>
পুর ুলিয়া</w>
বৈচিত্র্য ময়</w>
ধ্বংসাব শেষ</w>
ম্যাজিস্ট্রে ট</w>
সাং সদ</w>
উপা ধিতে</w>
মাদ্রাসা ।</w>
রোকে য়া</w>
ক্ষতিক র</w>
রাজ ীব</w>
কাঠামোগ ত</w>
মসৃ ণ</w>
ল্যাবরে ট
( আ
প ত
য ী
গ হ
ার ু
ধ ী</w>
( এবং</w>
কি ন
দ ুল
ড ''</w>
ঙ্গ ি
এ নাম
ন্ত ী</w>
নে তা
যোগ ান</w>
জেল ি
ত্ত ে
মো র
মো ঘ
স্ মার্
অভি ন্ন</w>
পে ঁ
যে ত।</w>
পে রু
সে সময়</w>
ব্য ক্ত</w>
গ্রহ ণে</w>
ব ন,</w>
ফি ন</w>
সব ল</w>
ে ন্দ্র</w>
ঞ্ জার</w>
''' ,</w>
কর্ ণা
মুখ ের</w>
এ রিক</w>
প ান,</w>
বা বর</w>
দর্শ ন,</w>
যুদ্ধ কালীন</w>
ওয়ে স্ট
রাজ বংশ
গু ড়ি</w>
নে তা,</w>
সে ইন</w>
ঘট েছিল।</w>
গে ম</w>
সি টি,</w>
অ ্যারি
এলাকা ,</w>
বেগ ম
খেলোয়া ড়ের</w>
গিয় েছিল</w>
অধিক ার
প্রথম দিকে</w>
পু ষ্টি</w>
রসায় নে</w>
তুর স্ক</w>
ফ লে,</w>
ব্রিট েনে</w>
মুহ ূর্
আউ ল
অতী ত</w>
পার বেন।</w>
অপর দিকে</w>
আদা য়ের</w>
শি শুর</w>
আব্দ ুল্লাহ</w>
কাঁঠ াল</w>
ফার ুক</w>
শ্রম িকদের</w>
মাদ্রি দের</w>
ফেলু দা</w>
বাঙালি দের</w>
অ ণুর</w>
দুর্ ঘটনায়</w>
ক্ষমতা চ্যুত</w>
ইয়র্ কের</w>
সম্প ত্তির</w>
ক্যালিফোর্নিয় ায়</w>
ফি রোজ</w>
কুরাই শ
কর্মসূ চির</w>
মুঘ লদের</w>
রফ িকুল</w>
প হেলা</w>
হেপা টাই
7 –
জ বা
গ াম
ন্ টি</w>
থ িত</w>
মি ,</w>
ঘ ট</w>
ড াল</w>
বি বর্ত
বর্ত ী
পুর -
সু ভা
য় মান</w>
জি তে</w>
ড ানে</w>
মু কু
এ রি
ম ন্ড
নী তে</w>
ব সের</w>
ত লের</w>
গণ ি</w>
ান াই
ম ারি
প ণের</w>
মত ,</w>
ই নার</w>
সার ির</w>
প্রা ণি
ত্ব পূর্ণ</w>
ক্ষে পের</w>
বে লু
লো য়ার</w>
ক চু
দর্শ ন
ত ানা
9 নং</w>
ফল িত</w>
জল ি</w>
( 191
খে তে</w>
আবিষ্ কার
শ্ব র
188 3</w>
ফেব্র ুয়
রাই লের</w>
শাস কদের</w>
নী চে</w>
মহা বিশ্ব</w>
হর লাল</w>
ফ্ লা
লিখ েছেন।</w>
হার্ ড</w>
ে শনের</w>
গো পাল</w>
রোগ ীর</w>
প ীর
অ ডিও</w>
মধ্য ভাগে</w>
শেষ ভাগে</w>
স্য ু</w>
সপ্তা হে</w>
বুদ্ধি ম
সমালোচ নার</w>
বীজ গাণিতিক</w>
হাউ জ</w>
পরগ নার</w>
শে রপুর</w>
মা সে,</w>
চেত না</w>
দেবী ,</w>
দুঃ খ</w>
আশে পাশে</w>
নিউজিল ্যান্ডের</w>
না সির
টেক্ সাস</w>
শুক নো</w>
অক্সি জেনের</w>
বা জেট</w>
হো টেল</w>
অনুভূ তি</w>
পুনরু জ্
সায়েন্ সে
দাবি তে</w>
সম্পৃ ক্ত</w>
সাথ ে।</w>
সংখ্যাগরিষ্ঠ তা</w>
প্রাসঙ্গ িক</w>
অ্যান্ড্র ু</w>
স্যাম ুয়েল</w>
মহা বীরের</w>
আইইই ই</w>
বর্তী কালীন</w>
সুভা ষ</w>
জ ও
ও শ
খ ৃ
লা ।</w>
ভা ত</w>
ত্র ৈ
হ ো</w>
লি ও</w>
শ্রে ষ্ঠ
ল ীর</w>
ী প</w>
মধ্য স্থ
ভূ তি
মে গা
ঘ নী
ই পি
কাল াম</w>
যুক্ তির</w>
তৈ র
মহা ভারতের</w>
হ কি</w>
পরি পূর্ণ</w>
. ).</w>
লাই ফ</w>
ফা ংশ
যুক্তরাষ্ট্র ,</w>
ব ার।</w>
পড় েন</w>
কার্য ত</w>
আম ,</w>
ভ গ্
জাম া
সে গুলোর</w>
ল্যান্ড ীয়</w>
স্টি ন</w>
পরিষ দে</w>
ন ব্য</w>
ব্যাং ক
ব্যাং ক,</w>
অঞ্চল সমূহ</w>
ন্য ূ
হায় দার</w>
উৎপ ত্
ফোর্ ডের</w>
উদ্দেশ ্য
প্রচ ণ্ড</w>
ই বন</w>
দ্বীপ ,</w>
প্রযো জ্য</w>
প্র স্থ</w>
বিশ্ব জুড়ে</w>
বর্গ মূল</w>
ঠাকুর ,</w>
পরি ত্যাগ</w>
মত ো।</w>
দর কার</w>
গ ড়ের</w>
দিনাজ পুরের</w>
মুদ্র ার</w>
কর ি।</w>
হরি পুর</w>
কক্ষ ে</w>
ক্লি ন
মধ্য যুগে</w>
অ সমী
আত্ মা</w>
অ সামান্য</w>
খাদ ্যের</w>
শিক্ষ কতা</w>
অধি বেশন</w>
আ লেক্
ব্যবস্থা ,</w>
চিত্র নাট্য</w>
পিয় ের</w>
রাউ জান</w>
স চেত
ব্যাট সম
হেমিং ওয়ের</w>
মেঘাল য়</w>
প্লে টোর</w>
বিপ ন্ন</w>
বাছা ই
ঘ নিষ্ঠ
প্রচেষ্ট ায়</w>
মহারাষ্ট ্র
চারু কলা</w>
বাইজে ন্টাইন</w>
অভিযো জিত</w>
সালাহুদ্ দিনের</w>
অ্যানি মে
খা গড়া
খাগড়া ছড়ি</w>
দ ্য
রা গ
এব ার</w>
ত্র িক</w>
ট দের</w>
1 20
কো ট</w>
ক লি
উপ যোগ
প্র বর্ত
জি ও</w>
প িয়ে</w>
বিজ্ঞ া
যে ভাবে</w>
বো নের</w>
ব নাম</w>
দে বার</w>
কো ণে</w>
কো ণের</w>
িয়া ।</w>
রি ফ</w>
হয়েছিল ;</w>
উৎ ক্ষে
তাল ি
সো ম</w>
ট্র িল
বি দ্ধ</w>
উত্ত প্ত</w>
সা পের</w>
হ্ ম</w>
ক্ষ রিক</w>
চল ছে।</w>
বা ধা
যু গ্
পাঠ ্য</w>
িয় েছিলেন।</w>
জেন ার
সফ রে</w>
হিসে বে,</w>
সম ভূমি</w>
ভাই সর
সমা হিত</w>
মিশ নের</w>
হাম লায়</w>
ছা পা</w>
আহমে দের</w>
দার ু
ভাল ু
শীল তার</w>
আছ েন</w>
(196 9)</w>
ই মাম
তাম িল
স্প েনে</w>
কর্মকর্ তাদের</w>
গ্রন্থ টি</w>
এড ু
রঙ িন</w>
বর্গ কিমি</w>
চক্র ের</w>
দিয় েছিলেন,</w>
পিছ িয়ে</w>
সংস্থা ,</w>
; ...</w>
পের ু</w>
গার্ লস</w>
পূর্ বেই</w>
লঙ্ ঘন</w>
কুল ে
. এ.</w>
ড েনিস</w>
অনুষ দের</w>
ভূমিকম্প ের</w>
সে তুর</w>
নিউইয় র্
কর্তৃ পক্ষের</w>
প্রস্তা বনা</w>
প্রযো জনা</w>
প্রতিফল ন</w>
কয় লা</w>
পরস্ পরের</w>
মধ্যপ্রাচ ্যের</w>
বৈঠ কে</w>
নার্ সিং</w>
ঈশ্বর চন্দ্র</w>
হাঙ্গে রির</w>
জীবন যাত্রার</w>
মুর্শিদা বাদ</w>
রাজত্ব কালে</w>
ব্রুনাই য়ের</w>
কল াম্বিয়া</w>
পার্বতী পুর</w>
মৌলভী বাজার</w>
সং বাং</w>
পি পলস</w>
জেলি ফি
বিজ্ঞা পন</w>
ভ ান
র িয়
- কে</w>
ট )</w>
ক স</w>
চ ান</w>
জন ি</w>
দেশ ী</w>
দি ল</w>
রাজ ের</w>
বাংলা কে</w>
মান ্য</w>
ফ রে
ক মার্
অনে কা
অ্যা ট
অ্যা থ
ল ভ</w>
স তী
র জার</w>
পো ড়
দ ান।</w>
র ানা</w>
আমের িকা
মান চিত্র
আ বাদ</w>
গঞ্ জে</w>
প ্যান
আব ্রা
সম যো
শত ক।</w>
ত ারে</w>
নিবন্ধ )</w>
দিয় েছে</w>
দূ ষণ</w>
ফেল তে</w>
নে শন
পূর্ব -
রেখ েছিল।</w>
চিহ্ নি
শিক্ষার্থ ীরা</w>
ম্যা ক্স</w>
পুরা ণের</w>
ক্যাল ে
ভি তর</w>
1 টি,</w>
185 6</w>
বোঝ ার</w>
যোদ্ধ া</w>
জগ দী
গো বিন্দ
দুর্ নীতি</w>
পরিবেশ িত</w>
দার ুল</w>
ব্রা সেল
অক্ষ া
ই য়েল</w>
ইরা কি</w>
সাধ িত</w>
কমা ন্ড</w>
প্রচার ক</w>
হয় নি,</w>
কানাড িয়ান</w>
বাতা স</w>
বিচ্ছ েদ</w>
কিশো র
আবাস স্থল</w>
বীর শ্রেষ্ঠ</w>
অভিজ্ঞ তার</w>
জ্যা ক
ত্রা ই</w>
দক্ষ তার</w>
জ্যামাই কা</w>
আরা কান</w>
কোথা য়</w>
সংস্ কারক</w>
হিমাল য়ের</w>
শ্রেণী বদ্ধ</w>
গেম সে</w>
প্রতিক ৃতি</w>
কন্ট ্রো
ছু টির</w>
নান ান</w>
ইতি বাচক</w>
মিউনি সি
টাই মস</w>
মাস্ট ার্স</w>
টা কা।</w>
গভীর ভাবে</w>
প্রশং সিত</w>
সামগ্র ী</w>
নব জাগর
চক্রবর্ত ী,</w>
মার্কে ট,</w>
প্রমুখ ।</w>
বেঙ্গালুর ু</w>
সকল ের</w>
ভা স্কর</w>
নেতি বাচক</w>
র ৈখিক</w>
চাঁপাইনবাব গঞ্জ</w>
মেলান্দ হ</w>
আ ত্রাই</w>
শ য
ত ফ
5 ।</w>
কর ।</w>
কা কা
সম বে
ন ুর
ঝ ুল
ধ নের</w>
লি স</w>
ব ক্র
ভা ন্ত
নিয় ে।</w>
ক ানে</w>
কর িয়া</w>
লেখ েন</w>
7 9</w>
ন্ তির</w>
বৃ ক্ষ
দে ড়</w>
গ ারের</w>
ঘ ন্ট
ছ ড়া</w>
না ফ</w>
; ),</w>
; বাংলাদেশ</w>
নে স্ট</w>
রু দ্ধ</w>
মন্ত্র ী,</w>
মুস া</w>
না বিক</w>
সে সব</w>
; টীকা</w>
ভাষা য়
আন্দ াম
পড় েছে।</w>
ট িকি
দুর্ গের</w>
সিং হ
নাম ূল
বি ত্ত</w>
অ্যাল কো
আনু গ
বাঁ শ</w>
হা বিল
রয় েছেন</w>
ফ্ লে
ত েলের</w>
সত্য জি
নির্মা ণে</w>
গৌ ণ</w>
ইন্টার নে
বলি র</w>
দুর্ গা</w>
বিভাগ ।</w>
কথা সাহিত্যিক</w>
পর্যবেক্ষ ণের</w>
মুদ্র ণ</w>
কক্ষ পথ</w>
সীমান ার</w>
আচর ণ
কারণ ে।</w>
আইন সভার</w>
প্রচার ণা</w>
আশ ঙ্
উর্ দু
ন্ডি ং</w>
অন্ত ঃ
মন মোহন</w>
পা তলা</w>
কালী গঞ্জ</w>
আগস্ট ে</w>
বায়ুমণ্ড ল</w>
সি পাই</w>
নিউজিল ্যান্ড
মো টর
সুইজার ল্যান্ড</w>
সর্ব জনীন</w>
লিও নার্
বুল গের
রয়েছ ে;</w>
নজর ুল
গোলার্ ধে</w>
বল্ লাল</w>
বঙ্ কিম
কার্যকলা প</w>
শরৎ চন্দ্র</w>
দ লিল</w>
হার্ড ওয়্যার</w>
সামঞ্জস্য পূর্ণ</w>
প্রিন্স টন</w>
প্রতিবর্ণ ী
অ্যাড ভেঞ্চ
চন্দনাই শ</w>
হেল ্ম</w>
শিল্ পা
ই ত্তে
বি নামূল
ন্যূ নতম</w>
হাবিল দার</w>
ইত্তে ফা
7 ।</w>
বা ক
কর ী</w>
্যা ব
লা উ
হা ছ
ই নের</w>
মি র
যা ই</w>
র মে
য কৃ
সর িক</w>
9 3</w>
াল িয়া</w>
প্রথ মার্
শে র
স্বা দ</w>
উত্ত রা</w>
দেখ িয়ে</w>
ঝ ড়</w>
প োর</w>
2 তম</w>
প্রতি বন্ধ
বন্ধ ুর</w>
মত ই</w>
ব্রি জের</w>
দ ন্ড</w>
18 00</w>
টে জ</w>
স্ট ুয়
আন্তর্ জা
( 202
ভব ন
রো মের</w>
ইতাল িয়ান</w>
সম্পাদ কদের</w>
186 4</w>
সামা জ
চাঁ দে</w>
ফ্রা ঙ্ক</w>
বাদ ামী</w>
সা ধু</w>
চ েম্ব
অ সম্ভব</w>
কথা য়</w>
টে বিল</w>
না সির</w>
দো কান</w>
মঙ্গ লের</w>
টার্ ন</w>
গবেষণা পত্র</w>
ব্যা করণ
চ্ছ েদ</w>
অপরা ধের</w>
ঘটনা বলি</w>
কৃষ্ণ কে</w>
নেপাল ি</w>
পরি সরে</w>
শৈল কু
হলো -</w>
অন্ধ কার</w>
কু য়েত</w>
বাম পন্থী</w>
প্লা জমা</w>
অধি বাসীদের</w>
দো ষী</w>
ফ্রে ঞ্চ</w>
ইংরেজ রা</w>
জন শ্রুতি</w>
স্থল বেষ্টিত</w>
প্র গতিশীল</w>
গঙ্গোপাধ্যা য়</w>
ভারত বর্ষের</w>
ত্র িকো
প্রচেষ্ট ার</w>
ওয়া টার্স</w>
লড়াই য়ে</w>
বৈষ ম্য</w>
ব্রো ঞ্জ</w>
বরা দ্দ</w>
সীমান্ত বর্তী</w>
বিবেচ নায়</w>
সার্বভৌম ত্ব</w>
জিজ্ঞা সা</w>
বেঁ ধে</w>
জ্যে ষ্ঠ</w>
কোপার্ নিকা
অলৌ কিক</w>
ে য়
তামিল নাড়
ধ ।</w>
বা ৎ
অ ল</w>
শ টি</w>
আ নি
7 .</w>
পর ্য</w>
তা ভি
শা ক
স ীর</w>
জ্ ব</w>
ব্য স্ত
গ ির</w>
ব্যা বে
ম তের</w>
যুদ্ধ া
চাল ের</w>
মহা কর্
নদ িয়া</w>
জান ার</w>
ার্থ ক</w>
সো না
বিষয় গুলো</w>
গ্রাম ে।</w>
কার ী।</w>
ধর ে।</w>
গর ু</w>
পো ল</w>
এম পি
জি দান</w>
ধ ান।</w>
ফে স</w>
পার্ ট
চ ণ্ড
প্র জন্ম</w>
হো ম</w>
মাল য়</w>
স্বাধীন ভাবে</w>
লু ড
ড ্যান
পৌ ছ
লে গে</w>
শ ব্দে</w>
সং কর</w>
ভাব না</w>
উপন্যা সে</w>
উপা চার
ক নভ
ভে দে</w>
বিভ ব</w>
শহর ত
186 6</w>
গণ তন্ত্র
ক্যাল কু
রবীন্দ্র সঙ্গীত</w>
ও এস</w>
184 5</w>
জৈ বিক</w>
বা কী</w>
ন ুল</w>
বির িয়
দি তেন।</w>
উদ্ভাব নের</w>
পাঁ চাল
পদ্ মা
শরী রে</w>
পঞ্জ িকা</w>
প্রাচীন কাল</w>
বিবে চিত।</w>
মাছ ,</w>
অর ণ
হাও র</w>
বাহ ামার</w>
তিন জন</w>
হ্য ার
অধ্য য়নের</w>
পেন াল্
মুসলমান রা</w>
উপর ।</w>
ইল িয়া
আলোক চিত্র</w>
সিদ্ধা ন্ত
হাতি য়া</w>
সফল তা</w>
গ্লো ব</w>
মাতৃ ভাষা</w>
বাসিন্দ াদের</w>
প্ল্যা ট
অ্যান্ট ার্
বিবৃ তি</w>
ইঞ্চ ি</w>
সেলি ম</w>
অ্যাকিলি সের</w>
অন্তর্ নিহিত</w>
কনসার্ ট</w>
এ ভারে
লিমিটে ড,</w>
রিজার্ ভ</w>
আনো য়ারা</w>
রেনে সাঁ
উলু ম</w>
শুল্ ক</w>
বি মূর্ত</w>
নিখুঁ ত</w>
সমযো জী</w>
চরি তাভি
গ ড
এক া</w>
ব ব</w>
হি ল</w>
গ ু</w>
না তি
মি নি</w>
মধ্য ম</w>
মো না
রি ও</w>
জ ানের</w>
সদ র
বি ড়</w>
ত্ব কে</w>
ত্য ক্ত</w>
ড িয়ার</w>
খা সি</w>
পর মহ
দ্র ো
স্থান টি</w>
জে ন্ট</w>
এলা হা
দা বাড়
খ ান।</w>
জার্ সি</w>
মু স্তা
যা চ্ছ
হে গ
জো য়ার</w>
জেলা সমূহ</w>
193 1)</w>
মাল ভূমি</w>
শৈ ল্প
ের িয়াল</w>
লা গিয়ে</w>
কাঠাম ো
র িলি
কাল ক্রমে</w>
দূর বর্তী</w>
দূর ত্বে</w>
195 0-এর</w>
লে বান
বন ু</w>
সমুদ্র ে</w>
প্রশিক্ষ ণের</w>
চেয়ার ম্যান
আ বর্তন</w>
ফলা ফল
সে ক্রে
ধারাবাহ িক
জ্যোতির্ বিদ্যা</w>
ইংরেজি ,</w>
নি খিল</w>
অ স্বাভাবিক</w>
বেলজ িয়ামের</w>
অভ্যুত্থ ানে</w>
দুর্ নীতির</w>
গা ড়ির</w>
কর্মকা ণ্ডের</w>
অ্যাল বাম
নগ রের</w>
চাম ড়া</w>
পর্যায় ক্রমে</w>
আব্ দুস</w>
সো ডিয়াম</w>
মাদ্রি দ</w>
জল বায়ুর</w>
মরু ভূমি</w>
নথি ভুক্ত</w>
পিরামি ড</w>
সু য়েজ</w>
সি ভিল</w>
উপর ন্তু,</w>
চ ম্</w>
সেকেন্ড ে</w>
ত্ব রান্
শ পিং</w>
ঘাট তি</w>
বিষা ক্ত</w>
নেহর ু</w>
টেক্সা সের</w>
সন্তু ষ্ট</w>
বোলৎ সমানের</w>
অধিবেশ নে</w>
বি তাড়িত</w>
ঞ্ জলি</w>
ফাউন্ড েশনের</w>
আর্ নেস্ট</w>
আন্দাম ান</w>
ত্বরান্ বিত</w>
র ্য
খ স
ঝ র্
উ ই</w>
সা ই</w>
ড় াম
প স</w>
; একটি</w>
না )</w>
ভি ষ
ছ ন্দ
। ''</w>
সি ম</w>
ক ষ্ট
ন ুর</w>
ং লা</w>
চ লা</w>
সর ল
ন্ত রে</w>
দা হ</w>
দ স্ত
মো ন</w>
জি .</w>
সাম নের</w>
অন্য রা</w>
উ রু
ভা ড়া</w>
ো লের</w>
ব্য ারি
র ণে</w>
জান া
'' বাংলাদেশের</w>
মহ া</w>
পাল া
সু মের
বৈ ধ</w>
পো তা
সাই প্রা
স ৃত</w>
সো মাল
প্রতি শো
স্প েন
ব্যবহ ারে</w>
যুক্তরাষ্ট্র ীয়</w>
1 20</w>
আবি স্
বাই বেল</w>
ক্রিকে টে</w>
িত ভাবে</w>
স্ট ্রো
ে ৷</w>
জন্ম ।</w>
উদ ্যান
দর্শ কদের</w>
18 30</w>
কর ণ,</w>
সমালো চিত</w>
বই য়ে</w>
185 5</w>
(197 0)</w>
পরাজ য়</w>
কর্ম জীবনের</w>
যোগ দানের</w>
খণ্ড ের</w>
আ খ্যা</w>
দক্ষিণ- পূর্বে</w>
বিচ্ছ ে
দেখ ায়।</w>
সুবিধ া
প মেন্ট</w>
কোম্পান ীর</w>
উপ স্থাপিত</w>
প্রতি স্থাপিত</w>
মানুষ ।</w>
অর্ গান
সাধ না</w>
সিরাজ ুল</w>
কাঁ টার</w>
সাই কেল</w>
কয়েক বার</w>
মো টর</w>
ব্রিট ান
কিউ বা</w>
মহা সাগর
সহযোগি তায়</w>
সমালোচ ক।</w>
জ্যামি তির</w>
সেন্ট ার,</w>
ক্য ারো
শতাংশ ের</w>
মহাকা শে</w>
ইন্দোনে শিয়া</w>
মালিক ানা</w>
চ মৎ
সংস্কর ণে</w>
175 7</w>
চতুর্ থা
শ্বে তা
সৌন্দর ্য</w>
আলজে রিয়ার</w>
;!--সং বিপ--</w>
ডেমোক্র্যা টিক</w>
মা থার</w>
অভিবাস ন</w>
ব্যাকট েরিয়ার</w>
অ্যাক্ সেস</w>
জানুয় ারী,</w>
সীতাকু ণ্ড</w>
সোহ রাওয়ার্
ডি মলা</w>
টেস্ট ্যান্ট</w>
প্রচ্ছ দ</w>
চ ুয়াল</w>
সা ঈদ</w>
মিথস্ ক্রিয়া</w>
প্রেসিডেন্ট ।</w>
ব খতিয়ার</w>
মরণো ত্তর</w>
পূর্ব বঙ্গে</w>
ফ্রান্সি সকো</w>
উদ্ভা বিত</w>
(পুরুষ )</w>
উ ড্ড
হ জ
ন ত</w>
ব ু</w>
দু জন
ত্ত ম</w>
বি গ</w>
সু নাম</w>
এক চে
ে ন্দ্র
স কলে
ন্যা য়
জান ি</w>
ড় িয়া
ধর্ম ।</w>
''' 1
চ ান।</w>
ঈ সা</w>
ট ুন</w>
এক ধরনের</w>
দর্শ নে</w>
16 ই</w>
এর পরে</w>
কম ই</w>
কা জ,</w>
ভব নটি</w>
বহু জাতিক</w>
মন ু
তুল িয়া</w>
আলো কিত</w>
পু ড়িয়ে</w>
এস েছিল।</w>
বরা জ</w>
হা সন</w>
গৃহ ে</w>
সম্রা টের</w>
ইয় ু
আট কে</w>
দুই বার</w>
পূ জার</w>
ভূ তাত্ত্বিক</w>
শ্ লোক</w>
গো ল্ড</w>
মত বাদের</w>
এক্স -
কম্পিউ টিং</w>
অধিক তর</w>
অধিক ৃত</w>
ব্যা করণের</w>
মিন াল</w>
হেল িক
সরবরা হ
25 5</w>
সিনে টর</w>
নেটওয়ার্ কের</w>
উপ সাগরীয়</w>
জাদু ঘরে</w>
মী মাং
5 0টি</w>
ব্রাহ্মণ বাড়
মারাদো নার</w>
আপেক্ষ িকতা</w>
লব ণা
ধূ সর</w>
ভূ গোলের</w>
পাট না</w>
ঈশ্বর দী</w>
প্রা ক-
অনা ক্রম
-------- --------
পরিসংখ্য ান
উপস্থাপ ক</w>
গোপ নে</w>
হা কিম
কৌশল গত</w>
ইয়ো হান</w>
আর্দ্র তা</w>
স্ফ ীতি</w>
খো দাই</w>
উত্থা পন</w>
গ বাদি</w>
রুজভেল্ ট</w>
দার্জিল িং</w>
ইছাম তি</w>
মোঘ ল</w>
হেপাটাই টিস</w>
সাল তানা
সত্যজি তের</w>
বাৎ সরিক</w>
বিরিয় ানি</w>
প ন্
ভ ী</w>
র ই</w>
দে ও
েছ ি</w>
কা তে</w>
ার্ ট</w>
ৎ স</w>
বিষ </w>
ল ব</w>
প থে
স ন্দ
দি গ
লি ঙ্গ
ড ্রি
কৃ তি
- --</w>
জ েম
আ স্ত
ম ত।</w>
ব্যা খ
চে কো
পু ষ্
পে ই
শ ন।</w>
থাক েন,</w>
চ ারি
য় ারি
ঘট ক</w>
মহ লের</w>
বে তন</w>
উই ন</w>
শ্র ো
কা টা
সঙ্গ ীতে</w>
না সা</w>
ন যোগ্য</w>
মুখ ার্
বর্ণ ালী</w>
ভাষা ''</w>
সম্পাদ ক।</w>
ঘা ট,</w>
আল ফা</w>
মধ্য েও</w>
আক্রম ণে</w>
এস েছে,</w>
য়ে ডের</w>
উঠ েছিল।</w>
জাহা জে</w>
রায় গঞ্জ</w>
ক্ষু দি
ফ্ ল্যা
পেয় েছেন।</w>
সরা ই</w>
ক গণ</w>
নজ রে</w>
ট ারে
উদ্ভি দ
; পৌরসভা</w>
পর্তু গী
ট্রা স্ট</w>
ধর্ম গ্রন্থ</w>
অনুর ূ
জান াতে</w>
প্রথম বার</w>
ুর ঘাট</w>
পতা কার</w>
এ গুলিকে</w>
বিষয় বস্তুর</w>
যক্ষ্ মায়</w>
স্টা ডি
পাক বাহিনীর</w>
আল- বা
ইস মাইল</w>
বিমানবন্দ র।</w>
ধর্ম নিরপেক্ষ</w>
বায়ুমণ্ড লের</w>
রবীন্দ্র নাথ
ভিক্ টর</w>
যত ীন</w>
সন্ত ানদের</w>
মান চিত্রের</w>
চট্টগ্রাম ,</w>
টেনে সির</w>
ব্য ো
মে রিন</w>
আয়ার ল্যান্ড</w>
ক্যামেরু ন</w>
খ্রী ষ্ট
সাময় িকী</w>
উভ য়েই</w>
শ হিদ</w>
উপ স্থিতিতে</w>
চ্যা ন্স
ডেমোক্র্যা ট</w>
নির্যা তন</w>
ছা গলের</w>
স্বয়ং ক্রিয়</w>
শু নতে</w>
20 18)</w>
ছো ট্ট</w>
দ্ ভুত</w>
ধ্ ব</w>
সেনানি বাস,</w>
অবন তি</w>
ক্ষু ব্ধ</w>
টু করো</w>
আমান ত</w>
সৃজন শীল</w>
ভোটা ধিকার</w>
হিমোগ্লোবি নের</w>
হ তো,</w>
প্রকার ভেদ</w>
রেজি মেন্টের</w>
নি পীড়
বেল ারু
গানো ম</w>
জও হরলাল</w>
ট্রিল িয়ন</w>
ক্যাল কুলে
কন্ট্রো ল</w>
কনভ েন
পরি ত্যক্ত</w>
ব্যো মকে
অ স
প শ
8 -
চ ী</w>
প তি
ঠ াম
ার ক</w>
ড ্যা
দে ন
সাল ্
র নের</w>
হি রো
জে র
পা য়ে</w>
াল গ</w>
লো হা
ব্যা চ
আর .</w>
চল েছে।</w>
কা টার</w>
জন্ মা
ের িক</w>
বাহ ক</w>
টো য়
ঘট না।</w>
প্রকাশ ্যে</w>
লা গে</w>
শহ র,</w>
নিয় মের</w>
কম লা</w>
কমি উ
সাক্ষ ্য</w>
বিশে ষণ</w>
মি শন
পূর্ব দিকে</w>
পূর্ব তন</w>
বৈশিষ্ট ্য।</w>
কান াই
অফি সার
এক টি,</w>
স্বাস্থ ্যের</w>
(197 1)</w>
পাই ক
ডো মার</w>
ছাত্র রা</w>
আব্ বাস
প্রতী কী</w>
নক শা
দাঁ ত</w>
দান কারী</w>
অনু বাদের</w>
অধিক ারের</w>
সন্ত ান।</w>
বিন্যা সের</w>
কোষ ী</w>
কক্ষ পথে</w>
সম্মেল নের</w>
কাজ ।</w>
কোর্ টে</w>
আকা দে
নিরপেক্ষ তা</w>
আর্কাই ভ</w>
এ গুলোকে</w>
( 1ম</w>
চে ন্না
হাট -
তরঙ্গ দৈর্ঘ্য</w>
ট্টা ,</w>
রি পোর্
ঐতিহ্য গতভাবে</w>
পরিবর্ত নশীল</w>
রচনা বলি</w>
হয়েছ ে;</w>
ডু বে</w>
প্রত্যা শিত</w>
ব নাঞ্চল</w>
সাহে বের</w>
চতুর্ দশ</w>
চৌম্ব কীয়</w>
কৃষ্ ণাঙ্গ</w>
কন্যা )</w>
এডি সন</w>
গায় িকা।</w>
রে স্তো
জেনে টিক</w>
অঙ্ক ন</w>
সত্য েন্দ্রনাথ</w>
কখ নই</w>
সাঁওতাল ি</w>
গ্যাস ীয়</w>
প্রবেশ দ্বার</w>
ট্রান্ সমি
প্রেসিডেন্ সি,</w>
অনুপ্রের ণা</w>
এন সাইক্লো
আলম গীর</w>
ট্র াম্প
ড পলার</w>
পেট্রোল িয়াম</w>
সরীসৃ প</w>
ফল স্বরূপ,</w>
ন িক্ষেপ</w>
ভগ্ না
আ ক্ষরিক</w>
আব্রা হাম</w>
ভিল হেল্ম</w>
তাৎ পর্য</w>
শৈল্প িক</w>
খস ড়া</w>
চেন্না ই</w>
র থ
আ ঙ
8 ।</w>
ব ট</w>
জ মা
েল ার</w>
ড় ো</w>
সি ড
দ ূর্
হ ্যাল
ব্ লা
জেল ে</w>
শ ্রা
দা গ</w>
কু ঠ
অ পে
ট কের</w>
জু নে</w>
শাস না
ন্ট িক</w>
নে তারা</w>
কল িকা
সাই টো
হল ি</w>
হো সেন
লু ক</w>
হিন্দ ী</w>
স কালে</w>
পদ বী</w>
সম্পাদ কের</w>
দ্র বী
সুর ের</w>
মুক্তি বাহিনীর</w>
রো ডের</w>
শ্রী পুর</w>
ওঠ ে,</w>
অভি ধান</w>
কিছু কাল</w>
অর্ জিত</w>
জ্যোতি ষ
প্রকল্প ে</w>
না চের</w>
ডো নাল
ট েনে</w>
দক্ষিণ- পশ্চিমে</w>
নর ম</w>
রে ঞ্জ</w>
নূ রুল</w>
মঞ্চ স্থ</w>
খেলা ।</w>
গ্রা ফি</w>
বন্দ্যোপাধ্যা য়ের</w>
প্রত্ন তত্ত্ব</w>
সং মিশ্র
র চিত।</w>
সমী করণ
ড্র ো</w>
গ্রীষ্ম মণ্ড
মক্ কায়</w>
জ্যামাই কান</w>
ফজ লে</w>
ষ্ণ ুর</w>
প শ্চা
চিকিৎসা বিজ্ঞানে</w>
ক চু</w>
প্রী তি</w>
দাস দের</w>
ম ওলানা</w>
কেন্দ্র ীভূত</w>
;!--বাএপ্র ব
দেখু ন
ভুট ানের</w>
যাব তীয়</w>
স্বীকৃ ত।</w>
বিপর ীতে,</w>
প্র দেশ,</w>
আলবেন িয়া</w>
সৌর জগতের</w>
লিং কন</w>
সংবাদ পত্রের</w>
সমতুল ্য</w>
সর ঞ্জাম
ব্যুর ো</w>
আশরা ফ</w>
নাইট্রো জেন</w>
আলাস্ কা</w>
ওর িয়ে
সন্ধ্য া</w>
তি তাস</w>
জীবাশ্ ম</w>
অন্তর্ বর্তীকালীন</w>
অসমী য়া</w>
যুগ্ ম</w>
অজ্ঞ েয়
দ্রবী ভূত</w>
চি ড়িয়া
গ্রীষ্মমণ্ড লীয়</w>
বি ষ্ণুর</w>
উ জ
ল ক
ভ য়
ন ন</w>
াম ে
িয় ার
থ িক</w>
ন্ দে
ক ে।</w>
ক ট</w>
ম নি</w>
ন্দ ার</w>
ত ''</w>
মান া</w>
বে লে</w>
রাজ ার
ফ ুর</w>
যোগ ,</w>
স্ট ে</w>
স্ট ,</w>
ল াম</w>
পার ি</w>
অন্য টি</w>
দা সের</w>
সদ ৃ
ত্ ত্ব
াই জে
গঠ ন
যা চ্
ই ন্দ্র
ডি সি</w>
রা খা
গো টা</w>
চার জন</w>
দেশ গুলো</w>
পাল ি</w>
র ানি</w>
ব ধ</w>
ও পরে</w>
পার্ কে</w>
মাল া
লাই টের</w>
ভে ড়া</w>
হর ণ</w>
আন্দোল ন,</w>
উৎপাদ ক</w>
ভাষা সমূহ</w>
দেশ টিকে</w>
লে ডি</w>
নির্দি ষ্ট
লি বার
কার ীরা</w>
অ গ্রা
ঙ্ কিত</w>
না সার</w>
মে কান
যাত্র া
নার িক
ই ম্প
রায় পুর</w>
দা ঙ্গা</w>
18 21</w>
পরিমা ণের</w>
টেলিভি শনের</w>
(198 8)</w>
খণ্ড িত</w>
ইনস্টিটিউ টের</w>
উত্তর- পশ্চিমে</w>
পরমাণ ু
নদী গুলো</w>
দিয় েছিল</w>
হিসা বেও</w>
হায় দ্রা
বাহ ামা</w>
বাঁ ধা</w>
ঘন ত্বের</w>
কোষ '',</w>
কক্ষ ের</w>
করছ ি।</w>
সাম্প্র তিক
দ্বীপপু ঞ্
ভবিষ্য তের</w>
হিসে বেই</w>
হ্যা ঁ</w>
কণ্ঠ ে</w>
পণ ্য
উপত্য কার</w>
তিন বার</w>
পাক বাহিনী</w>
টেলিভি শনে</w>
বৌদ্ধ ধর্মের</w>
প্রতি বাদে</w>
যত ক্ষণ</w>
স্বাস্থ্য সেবা</w>
কাগ জ</w>
শত্র ু</w>
নিউজিল ্যান্ড</w>
অ্যাকা ডে
ভালো বাসা</w>
ঘর ানার</w>
উপ সর্গ</w>
ব্যবস্থাপ নার</w>
রোনাল ্ড</w>
অববাহ িকা</w>
হিলবে র্
স্লো ভেন
ব্যাক্ট েরিয়া</w>
ণী য়।</w>
সা ব্যস্ত</w>
বাস্তবায় নের</w>
মিলি টারি</w>
ফিউ শন</w>
জি ম্বা
খে তাব
সিন্ধ ু</w>
বিশ্ব ভারতী</w>
স্পোর্ টস</w>
এশিয়া টিক</w>
ড ক্টরেট</w>
মা ন্নান</w>
বজ ্র
সার্কি ট</w>
ডগ লাস</w>
ব্রা হ্ম</w>
খেতাব প্রাপ্ত</w>
ম গ
ৌ </w>
ঙ </w>
সে বা
মু রা
বি লে</w>
মে সি
য় ীর</w>
থা য়</w>
কে ট
রে স</w>
বা জে
জি ম</w>
ধার ী</w>
ল রা</w>
কি রা</w>
লো স</w>
বল ীর</w>
বল ,</w>
চল ার</w>
কল ,</w>
বাদ ।</w>
কু চিত</w>
গণ নার</w>
সো শ
গ্রাম ,</w>
ধর্ম কে</w>
দি চ্ছ
বিধ বা</w>
ন ম্ব
দশ া</w>
বাঙ ালী</w>
দ ান,</w>
সম কালীন</w>
সংখ্যা টি</w>
হি ন্দ</w>
জন্ম দিন</w>
খ ালি
সম কাম
রাজ ত্বের</w>
জ বস</w>
নিয় েছিল।</w>
খাল ীর</w>
অঙ্গ রাজ্য
ট্র েনের</w>
সঙ্গীত জ্ঞ
প্রকল্প টি</w>
দৃষ্ টি
বাগ ানের</w>
বাণিজ্য িকভাবে</w>
উচ্চ ারিত</w>
ত্র ুটি</w>
মি তভাবে</w>
প্রযোজ ক,</w>
নি হত।</w>
পেশা য়</w>
বিহ ার,</w>
এফ সি</w>
নির্ধার ণের</w>
বিলু প্ত
ত্রিভু জ
প িয়ান
ডল ার
প্রতি ভা</w>
কারখ ানা
প্রা ন্তের</w>
আত্ মার</w>
মড েলের</w>
সঞ্চ য়</w>
গো য়াল
5 0,000</w>
কাউ খালী</w>
গ্রা ফিক</w>
উদ যাপন</w>
গৃহ পালিত</w>
বিজয় ীদের</w>
চ্যু তি</w>
ইউরেন িয়ামের</w>
ম্পা য়ার</w>
উইকিপিড িয়াতে</w>
ভা সান
শৃঙ্খ ল</w>
তৈরি ।</w>
চিল ির</w>
মন্ত্রি পরিষদ</w>
ক্যারি ও
থান ায়</w>
মস্তি ষ্ক</w>
উপ স্থিতির</w>
বাঁশ খালী</w>
কমপ্লে ক্স,</w>
স্থানা ন্তরের</w>
আলাদা ।</w>
লাইসে ন্স</w>
উপে ক্ষা</w>
বাঙ ালির</w>
রক্ষণাবেক্ষ ণ</w>
মি সিসি
ফটিক ছড়ি</w>
ডেই লি</w>
সাতকান িয়া</w>
পেনাল্ টি</w>
হু সেইন</w>
প্রো টেস্ট্যান্ট</w>
অ ঁ
ফ িক
ল ্য</w>
স্ তে</w>
পর ে।</w>
তা ও
জন ৈ
হা ব</w>
প ু</w>
সে ম
আ ভি
দি স</w>
রাজ ি
18 2
18 0</w>
সু ষ
ডি র</w>
কু শ</w>
্য ানের</w>
গা ং</w>
তি তু
উচ্চ া
ভ ক্তি</w>
ভ েল</w>
ি নী</w>
এ দিকে</w>
ধর তে</w>
বন্দ রে</w>
দ ারী</w>
ই য়ার</w>
ম িয়াম</w>
পড় ে,</w>
আম ল</w>
আম ন</w>
ফ জল
পাঠ িয়ে</w>
সম্পাদ নায়</w>
নিবন্ধ টি</w>
বিস্ত ারের</w>
নিয় েও</w>
ধ লে
মি সৌ
উপাদ ান।</w>
বাঁ শের</w>
অ ক্ষ</w>
তি উনি
প্রো গ্রামের</w>
সমাজ তন্ত্র
মহা পরিচালক</w>
প্রি ন্স</w>
সংসদ ,</w>
ইনস্টিটিউ ট,</w>
(196 7)</w>
184 0</w>
খান ায়</w>
গৌ র
বন ভূমি</w>
চা ষা
কাব্য ে</w>
দান ী
কা বুল</w>
হরি ণ</w>
2 4টি</w>
সম্ মুখ</w>
; ড.</w>
চিকিৎস ক।</w>
অনেক টাই</w>
মনো নিবেশ</w>
িত ামূলক</w>
শ ও
পুত্র ।</w>
লি পির</w>
অনুপ পত্তি</w>
কূট নী
গণ হত্যার</w>
শীর্ষ ক</w>
পুঁ জি
সাহ সী</w>
কত টা</w>
200 8,</w>
মোহ ন
ভূখণ্ড ে</w>
কস বা</w>
সৌন্দর ্য
সেনানি বাস</w>
গীতিক ার।</w>
রে ডিও
মেঘাল য়ের</w>
উৎ খাত</w>
হাঙ্গের ীয়</w>
হাঙ্গে রি</w>
নিরাপ ত্তার</w>
ে ন্দু</w>
খোঁ জ</w>
যাঁ রা</w>
ইলেকট্রন িক্স</w>
ডাবলি নের</w>
স্টেডিয়াম ে</w>
টুর্নাম ে
স্বার্ থে</w>
পুনরা বৃত্তি</w>
দাঁড় িয়
তাড়া শ</w>
নিষ্কা শন</w>
ফসফরা স</w>
পূর্বা ভাস</w>
বার্ নার্ড</w>
ট্রি নিটি</w>
আধিক ার
অপরিহার ্য</w>
উচি ত,</w>
আ বৃত</w>
অ্যাপ্লিকে শন</w>
মোহামে ডান</w>
সিল িকন</w>
এইচ আইভি</w>
অ্যান্টার্ কট
নাতি শী
ডোনাল ্ড</w>
শও কত</w>
জনৈ ক</w>
নাতিশী তো
নাতিশীতো ষ্
চ ও
2 –
ভ র্
প ী</w>
ট েন
জন ী
স ীয়</w>
বি দের</w>
চি ত্ত
পা স্ত
বিদ ায়</w>
2 রা</w>
ব ধ্য
গা য়ে</w>
অবস্থ া
দেখ েন</w>
চাল না</w>
সঙ্গ ত</w>
জু নের</w>
জি নো
4 তম</w>
খ্রি .</w>
নে য়,</w>
চা ট
বন্ধ নের</w>
আ মত
বা টা</w>
বী মা</w>
পা ড়ে</w>
আর্ ন
দ্র ষ্ট
শু ভ</w>
প টা
ম্যা চ
এক সঙ্গে</w>
ফুট ে</w>
সাং গঠ
হ ার,</w>
কথ ার</w>
সং ঘা
ওয়া জ</w>
মো ৎ
সাই ন্স</w>
15 00</w>
পাকিস্ত ান,</w>
মার্ ক্স
কৃষ ির</w>
সম্প্র চার
তা হের</w>
নিয় া,</w>
শিক্ষ কদের</w>
প্রশাস কদের</w>
খুল নার</w>
ইয় ান</w>
বিশ্ বাসী</w>
185 3</w>
ভে ক্টর</w>
ভারত -
মন্দি র
কাব্য গ্রন্থ</w>
পর্যবেক্ষ ক</w>
মিনি টের</w>
পথ ।</w>
এফ .</w>
আলোচ না
এছা ড়া,</w>
মি খ
ধ্ব নির</w>
গ্যাল া
গার্ ড
গার্ ডেন</w>
উপ দ্বীপের</w>
গ্রি ন
30 টি</w>
সঙ্গী ত,</w>
নিম্ন রূপ</w>
সুন্দ রী</w>
নিষি দ্ধ
মহকু মায়</w>
ারো প</w>
অ দৃশ্য</w>
শ্রেণি বিন্যাস</w>
সাথে ই</w>
মহারা জা</w>
াপ ড়া</w>
পট ভূমিতে</w>
ম মতা
সূচ কে</w>
বঙ্গোপ সাগরের</w>
সিদ্ধা ন্তের</w>
অবশি ষ্টা
ফ্লো রি
উপাস নাল
জা হান
হুম কির</w>
বিস্ফো রণ</w>
সু কেন্দ্রিক</w>
সামঞ্জ স্য</w>
করেছিল েন;</w>
মদি নায়</w>
ছায়া পথ</w>
এত টাই</w>
নবাব গঞ্জ</w>
বেগু নি</w>
সৃষ্টিক ারী</w>
কুমার খালী</w>
প্রোটি নের</w>
বাই বেলের</w>
তারিখ ে,</w>
ধূমকে তু</w>
দৃষ্টিভঙ্গ ির</w>
প্রস্তুত কারক</w>
আই ফেল</w>
হই তে</w>
হাবি বুর</w>
দা তব্য</w>
সম ঝো
শায়ে স্তা</w>
অমি তা
মুহাম্মাদ কে</w>
মাইক্রোসফ ট</w>
স চেতন</w>
কার্য কারিতা</w>
বিনামূল ্যে</w>
ড্যান িয়েল</w>
উরু গু
সকলে ই</w>
হাট- বাজার</w>
অগ্রা ধিকার</w>
সাংগঠ নিক</w>
মিখ াইল</w>
মোৎ সার্
ো দ
ক ন্
ান ী
5 ই</w>
সা দ
ত্র ু
বে দ</w>
20 টি</w>
জা দ</w>
য মু
ও ভার
ফ িল</w>
সম্ ভা
ক ানের</w>
য়া তে</w>
উপ দেশ</w>
ট ন।</w>
! নাম</w>
থাক ত।</w>
জু ড়
দু টির</w>
আই ও
ভ ক্ত</w>
কা ন্ট
শিল্প ীর</w>
আ খা
3 তম</w>
'' বাংলা</w>
ছা য়া</w>
টে রি
সর স্ব
ক চ্ছ
17 টি</w>
হো ম
নিয় েই</w>
বহি রা
ফুট িয়ে</w>
চু ল</w>
ভাষা তে</w>
ভাষা গত</w>
চে ষ্টা
কার্ তিক</w>
15 )</w>
মা ধ্যা
আপ িল</w>
দায় ী।</w>
পাঠ ান</w>
অভি ভাব
ঐ শ্ব
য শা</w>
সং হত</w>
বি নয়</w>
শহর কে</w>
অধি ভুক্ত</w>
অর্থা য়ন</w>
যাত্র ীদের</w>
দল ,</w>
অ ন্তর
পদার্থ বিদ।</w>
বই তে</w>
ফুটবল ের</w>
সড় ক,</w>
পেয় েছিলেন</w>
193 0)</w>
দুই -
গী তি
(197 4)</w>
দ্বীপ টি</w>
ভাগ ্য</w>
লু ব্ল
আরে ক
ব দ্বীপ</w>
(196 8)</w>
অ স্বীকৃতি</w>
বান ৌ
কানা ডা
আদি ম</w>
মে লা,</w>
দেখ াতে</w>
প্রতি পক্ষ</w>
ব্য থা</w>
ণ মূলক</w>
ণা চল</w>
খেলা টি</w>
মানব তাবাদী</w>
ধারণা কে</w>
তুর ীয়</w>
179 3</w>
কেল ে
অ সুবিধা</w>
হাট ।</w>
অর ণ্য</w>
দ্ দীন</w>
ং ছড়ি</w>
মাং সের</w>
চিঠ িতে</w>
সি রিয়ার</w>
সংকল িত</w>
জন প্রতিনিধি</w>
ধর্মা ন্তরিত</w>
লাগ ে।</w>
ভাষা ভাষী</w>
প্রতি পক্ষের</w>
গৌ রব</w>
মাদার গঞ্জ</w>
মহান গর
মরি স</w>
নক্ষ ত্র
শেখ র</w>
বিপ্লবী দের</w>
নায়ে ব</w>
ক্যার িয়
কীর্ তন</w>
ক্যারি বীয়</w>
সু গন্ধ
হাজার ী,</w>
সংক ট</w>
পদ্ম শ্রী</w>
মসজিদ টি</w>
দু' টি</w>
স্টি ভেন</w>
পরি স্থিতির</w>
সম্প্র সারণের</w>
উত্তরাখ ণ্ড</w>
ড্রাই ভ</w>
বাদ্য যন্ত্র</w>
নওয়া ব</w>
কর্মচার ীদের</w>
শি ন্টো</w>
টোয়ে ইন</w>
আঠ ারো</w>
পার্লাম ে
মুম্ব ইয়ের</w>
জাকার্ তা</w>
বৎ সর</w>
রূ পরে
উন্মো চন</w>
মজুমদ ার,</w>
নির্মি ত।</w>
বাঙ্গাল া</w>
মাইক্রো কন্ট্রোলার</w>
সরকারি ভাবে</w>
ডব্লিউ .</w>
প্রাণ হানি</w>
সায়েন্সে সের</w>
ওশ েন
অ্যাথ লে
ত্রিকো ণ
লুড ভি
ব্রিগে ডিয়ার</w>
কো পেন
সর্বো ত্তম</w>
ব্যাচ েলর</w>
টোয় ারী</w>
আখা উ
বানৌ জা</w>
রূপরে খা</w>
কোপেন হেগ
বি ,</w>
ধ াম
নি রা
দ ীয়</w>
বা তি</w>
ট ুল
ট লে
ঙ্ কার
ব্য তা</w>
যা দ
ছ েন</w>
ক মান
অ চি
ন্ত ো</w>
ত থা
অব সর
প্রথ ার</w>
( 2</w>
ঞ্ ছ
হ ানের</w>
কাল ,</w>
হা তির</w>
মি ছিল</w>
কল াম</w>
ল েন,</w>
প লের</w>
ইস হা
হ োর</w>
প্রকা শি
ঘট েছে</w>
9 তম</w>
উচ্চ -
ক ষ্ট</w>
বর্ত নী</w>
কর ছিল।</w>
ম্যা ক</w>
পার্ কের</w>
পৌ ত্ত
বহ াল</w>
বো রহ
শো ভা
ম ারে</w>
ভাষা টি</w>
শ িয়াম</w>
পড় লে</w>
ওয়া ত</w>
নি রাম
সংখ্যা ঃ</w>
প্র মিত</w>
উপজেলা সমূহ</w>
জাম িয়া</w>
কর েও</w>
চৌধুর ী
সি টিতে</w>
পান ি
শহর টিকে</w>
কর বে,</w>
নেতৃ ত্বের</w>
অধি গ্রহণ</w>
পড় েছিল।</w>
গে -
2 ,000</w>
সাই মন</w>
ানু সার
হ ানি
আ ধান</w>
রেখ েছেন।</w>
গ েছেন।</w>
(197 2)</w>
অত্য ধিক</w>
ইত্যাদি )</w>
পারে ;</w>
আত্ম ীয়</w>
প্রণ াল
ভা সমান</w>
শীত কাল</w>
পুনর্ বাস
183 6</w>
কী র্তি</w>
দেশ ব্যাপী</w>
নিউ ক্লি
মনো ভাব</w>
স্বাভা বি
গ্রীষ্ম কালে</w>
অণু জীব
পড়া শু
রেল পথের</w>
প্রতি যোগী</w>
সং বেদ
বৈচিত্র ্যের</w>
চাহি দার</w>
11 ই</w>
বিশ্লেষ ণে</w>
উদ্বো ধনী</w>
চ্যাম্পিয়ন শি
প্রতিরোধ ে</w>
জীবা ণু
খা জনা</w>
ওয়াশিং টনের</w>
শনা ক্ত
জাদু ঘরের</w>
বন্ধু ত্ব</w>
গোলা কার</w>
আর্মেন িয়া</w>
স্টু ডিও
নিউ টন,</w>
মূল তঃ</w>
নো কিয়া</w>
দ্বারা ।</w>
ভুট ান</w>
জা হিদ</w>
ভ্রা ন্ত</w>
ক্যাম্ পাস</w>
ফ্রিড ম</w>
সঞ্চাল ন</w>
রু হুল</w>
ভগ বান</w>
ক্যারি বিয়ান</w>
মহারাষ্ট ্র</w>
সুফ িয়া</w>
মহেশ খালী</w>
সংক্রা ন্তি</w>
ব্দে ।</w>
সমীক্ষ া</w>
বিশ্বকোষ ীয়</w>
গঞ্জ )</w>
তাৎক্ষ ণিক</w>
চর্যাপ দের</w>
অ্যান্টি বায়োটিক</w>
লরে ন্স</w>
বীরভূ ম</w>
চলাচল ের</w>
সম্ব োধন</w>
ফিলোসফ িক্যাল</w>
মো জাম্
মৃত্ত িকা</w>
ঘনী ভূত</w>
তফ সিলি</w>
স্থ লা
অ দ্ভুত</w>
ইম্প েরিয়াল</w>
কার্ লোস</w>
স্থলা ভিষ
স্থলাভিষ িক্ত</w>
র স
ত ন
ো র
9 -
য ;</w>
ট ্য
6 ।</w>
হ র্
চ িক
হয় ত</w>
ধ ার্
তা ও</w>
ক্ষ িক</w>
ফ ান</w>
উ দ</w>
20 19
কার ্যা
ব্য য়
বিশ ্র
কো ণ
মু ক্
মু ন
ব্ লে
স্ট ার
পূর্ বাং
সা দা
প প</w>
থ ির</w>
চে ন্
কা য়ে
বে রু
রু পা
কল ি</w>
ক ত্ব</w>
জন্ মে</w>
ই বাদ
সূ রি</w>
ভ ক্তি
অ্যা ট</w>
ন্যা শ
বেশ কিছু</w>
হয়েছিল ো</w>
ওয় েল</w>
জ ্বর</w>
ভু জ</w>
টে শন</w>
সম্ মিল
ারা ,</w>
প্রকাশ নী</w>
ঘো ড়া</w>
প্রাচ ্যের</w>
অ সহ
পা ত,</w>
বন্দ ো
প্রা কৃত</w>
নাট ক
হি স্প
অক্ সাই
ব ানা
হ ্যাম
( 189
করত ো</w>
নী হার
197 1)</w>
যা বে,</w>
ভার তীয়
ফ্রান্ স,</w>
প্র সিদ্ধ
গে য়ে</w>
অথ চ</w>
কী ট
রায় ত</w>
ভ ক্ত
লোক কে</w>
পরি ধান</w>
সমাজ বিজ্ঞানী</w>
ভাষা তাত্ত্বিক</w>
নৃ তাত্ত্বিক</w>
অভ্য ন্তর
লে ও,</w>
খা টো</w>
জৈ ব
ডা কট
না গা</w>
মন্দি র।</w>
দাঁ তের</w>
বায় ুতে</w>
ছে দ</w>
স্ট্র ি</w>
সিনে মার</w>
প্রব াল</w>
প্রদর্শ নের</w>
জাতি গোষ্ঠী</w>
1. 5</w>
স্ট্রি ট</w>
উপ জাতির</w>
ডি স্ক</w>
উ সকে</w>
খেলোয়াড় দের</w>
শেষ ে,</w>
আউ ট
নু সরা
সেন গুপ্ত</w>
মসজি দ।</w>
(201 1)</w>
চিন্তা বিদ</w>
ইথিওপ িয়ান</w>
লাগ ানো</w>
সংশো ধনী</w>
বো হেম
কাট িয়ে</w>
খ্রিষ্ট ান</w>
বায়ুমণ্ড লীয়</w>
গ্রা হাম</w>
'' আ</w>
মান দণ্ড</w>
শহী দুল্লাহ</w>
থাই ল্যান্ড</w>
হা ওয়াই
গণ তন্ত্রের</w>
স্ব চ্ছ</w>
স্ত র)</w>
জন পদের</w>
বিস্ত ীর্ণ</w>
আতা উর</w>
ল ম্ব</w>
সমুদ্র পৃষ্ঠ</w>
প্রীতি লতা</w>
মরক্ কোর</w>
জু য়েট</w>
ভে তরের</w>
একা ধারে</w>
টুর্নাম েন্ট</w>
এয়ারলাই ন্স</w>
হিট লার</w>
বিপর্য য়</w>
যা পনের</w>
ক্যাল সিয়াম</w>
গার্ টেন</w>
ভ ্লা
ব্য ক্তিকে</w>
কম্ব োড
বুরুন্ডি র</w>
ক্ষমতা সীন</w>
ারাম পুর</w>
ফটোশ প</w>
এডু কে
দৃঢ় ভাবে</w>
যুক্ত রাজ্য)</w>
বে সবল</w>
টেক নাফ</w>
ইন্টার ফেস</w>
টার্ মিনাল</w>
খো য়ারি
চেন্ নাই
ঐ ক
াল ।</w>
াম ি</w>
ভা ঁ
ধ িত</w>
টি ম</w>
তা ''</w>
; বাং
গ নের</w>
কো ঁ
প্রতি ভা
াম াল</w>
নিয় ায়</w>
ভ রা</w>
থা কু
পু ট</w>
চল িত</w>
শিক্ষ কের</w>
চাল ায়</w>
নো ট
সরকার ।</w>
প্র বী
িক ারের</w>
আই ড
অ্যা ং
ল ম্
কো টা</w>
'' ),</w>
পর দিন</w>
গো য়া</w>
বাস ার</w>
চাল ান।</w>
গ দ্য</w>
কা পের</w>
উই ম্ব
শ্ বাস</w>
হয়েছ েন</w>
; -এ</w>
দেশ '',</w>
সাং খ
উ মাই
10 ,</w>
ভূম িকার</w>
বাল ্য
( 188
উ ড়ি
ওয় ালি
নিম্ নো
পূর্ব পুরুষ</w>
অঞ্চল গুলি</w>
নাল ীর</w>
দক্ষি ণ,</w>
বিরোধ ের</w>
দিক ে।</w>
13 ,</w>
মিশ িয়ে</w>
ত কুমার</w>
( 3)</w>
ত্রি পুরা
ডা ক্ত
সমর্থ ক</w>
ব্য তিক্র
অলি ভার</w>
(198 5)</w>
বাড় ানোর</w>
লন্ড ন,</w>
18 22</w>
জল পাই
যন্ত্র ে</w>
ঐ ক্য</w>
184 1</w>
স্বা দু</w>
গ্রীষ্ মের</w>
আহ রণ</w>
প ঞ্জি
নদী য়া</w>
বিপর ীত
183 1</w>
রসায় নের</w>
সুর কার,</w>
রায় হান</w>
রে ন্দ্রনাথ</w>
পরিষে বা
দপ্ত রের</w>
গ্যাল ারী</w>
হালি ম</w>
আঁ ক
কারা গার</w>
আটলান্ট িকের</w>
ফের দৌ
সহযোগি তার</w>
গো স্বামী</w>
বীজ গণিতের</w>
বি পণ
পছ ন্দের</w>
মেয় ার্স</w>
সংক্রম িত</w>
পুত্র )</w>
ফ িলা
বিমানবন্দ রে</w>
ভালো ভাবে</w>
তিব্ব ত</w>
প্য ার
মার্ কেট</w>
ম্য ানের</w>
সফল ভাবে</w>
নিষে ধ</w>
বিবেকান ন্দের</w>
বৃত্তা ন্ত</w>
তাজ উদ্দীন</w>
মিয়ান মার</w>
সংশ্লে ষণ</w>
হা কিম</w>
সোন ালি</w>
প্রতিনিধি দের</w>
মেন্ট ,</w>
জমিদ ারি</w>
এঁ দের</w>
অ্যাকিলি স</w>
সেলস িয়া
থ ্রি</w>
গালি বের</w>
ন .),</w>
অনুসন্ধ ানের</w>
দৌল তপুর</w>
র ঞ্জন
আগ্নেয়গি রি</w>
গর্ভ স্থ</w>
লু কিয়ে</w>
আব ারও</w>
জেরুজাল েম
বিলম্ বে</w>
প্য ারাগু
বিঘ ্
তলা ),</w>
গ্যালিলি ও</w>
পরবর্ তিতে</w>
য়ে ভ্</w>
ডেনমার্ কের</w>
সমবে ত</w>
ঝর্ ণা</w>
মীর সরাই</w>
রেস্তো রা
অরু ণাচল</w>
লুডভি গ</w>
উইম্ব ল
উড়ি ষ
( উ
ণ ্য
বি ট
ও ল</w>
রা হ
চ রা
উ ট</w>
বে ই
লা হি
জন তার</w>
টি ও</w>
উপ ার্
মি স</w>
মান স
ত বা</w>
যোগ ্য
খ রা</w>
গো ত্র
চ ল্
শিক্ষ ায়</w>
বি দেশ</w>
আ শ্চ
উৎ সে
পদ ক
আই টি</w>
বে রি</w>
1 তম</w>
রি সো
না টো
গ্রাম ।</w>
স্থান িক</w>
শু দ্ধ</w>
দা দা</w>
খা তুন</w>
পর রাষ্ট্র</w>
রক্ষ িত</w>
উ দার</w>
হে রা</w>
বি কৃত</w>
ত তো
জো টের</w>
প্রতিষ্ঠ ান,</w>
স্প িকার</w>
কা পড়
রু টে</w>
আপ ত্তি</w>
10 )</w>
পাঠ া
তার ার</w>
নভ ার</w>
ব্রা দার্
সিং হের</w>
ঞ্জ য়</w>
বি লি</w>
সংঘ ের</w>
জার্মান ীর</w>
গোষ্ঠ ী,</w>
বিরোধ ি
েনি ,</w>
বাঁ শি</w>
বিল িয়
পুরা ণে</w>
শ্রী রাম
এশ িয়া,</w>
অধ্যাপ ক,</w>
ফাই ন
চ ুল্
রি ভার</w>
বিন্দ ু
পাঠ ানোর</w>
জার ণ</w>
নাগর ী</w>
উপ নীত</w>
নর ওয়ে</w>
জায় গার</w>
সময় কালের</w>
কাছ েই</w>
ইরা কে</w>
প্রকৃ তিতে</w>
কোম্পান ি,</w>
ইর ানে</w>
চাল াতে</w>
; নদী
চলচ্চিত্র )</w>
লঙ্ ঘ
লিখ েছিলেন,</w>
করে )</w>
শিশু সাহিত্যিক</w>
উন্ড ে</w>
অর্ পণ</w>
যু বক</w>
বুদ্ধ দেব</w>
গ্রি স</w>
আশ্র ম</w>
বছর গুলোতে</w>
সমালোচ কদের</w>
ুল েশন</w>
লি গায়</w>
হাসপাতাল ের</w>
গ ারো
কার্যাল য়,</w>
27 শে</w>
ট্রা ফিক</w>
নক শার</w>
পণ্ডি ত,</w>
পাঞ্জা বি</w>
রম জান</w>
আবহা ওয়ার</w>
ভিক্ ষ</w>
মড ার্ন</w>
ঝা ঁ
ডা য়ো
যান বাহ
বন্ধু দের</w>
ছা ড়াও,</w>
ঔষ ধি</w>
মন্ত্রি সভা</w>
ো দর</w>
আত্ম জীবনী
ফেলু দার</w>
রবি বার</w>
স্থিতি শীলতা</w>
পাবলি শ
সংক টের</w>
গু গলের</w>
অ- কল্পকাহিনী</w>
ওয়ে স্টার্ন</w>
কু ঠি</w>
ব্যর্থ তা</w>
পার্থ ক্যের</w>
ক্ল ার্ক</w>
সুবিধ ার্থে</w>
বোম্ বাই</w>
আত তা
মোকা বেলা</w>
কম্পা ঙ্ক</w>
ভি ন্ন।</w>
ট্র্যা ক</w>
জমিদার দের</w>
ম্যাসাচুসে টস</w>
তেল ু
স্র ষ্টা</w>
আলাদা ভাবে</w>
;!--আশ-আনি সু</w>
নিরক্ষ ীয়</w>
অধি বাসীরা</w>
হাদী স</w>
মোতা য়েন</w>
জলপ্র পাত</w>
ব্যাসার্ ধ</w>
নরওয়েজ ীয়</w>
গ্ নু</w>
আহ মদ,</w>
রাজনীতিবিদ )</w>
সরিষা বাড়ী</w>
ব্যাটাল িয়ন</w>
অ্যারি স্ট
টি স্যু</w>
মধ্য বিত্ত</w>
চণ্ড ী
গোগ োলের</w>
অ বিচ্ছে
ডেভেল পমেন্ট</w>
ভু ট্টা,</w>
যু বরাজ</w>
এনসাইক্লো পিডিয়া</w>
জিম্বা বু
প্রথ িত
ত্রিকোণ মি
;নদী কোষ</w>
পাবলিশ ার্স</w>
অবিচ্ছে দ্য</w>
প্রথিত যশা</w>
উ র
ট -
অ দ
ও রা
াম ত</w>
পা স
ুর ের</w>
ব লে
টি ফ
কার ু
বা ঙ্গ
প েন</w>
ষ্ট ।</w>
শা ন্ত
স্ কার</w>
প্রা প্
রাজ ারা</w>
য িল</w>
ত্ত ের</w>
অন্য ের</w>
প তির</w>
কল ন</w>
জেলা টি</w>
আস েন,</w>
লি খন</w>
আল হা
ক্ষে প
ভু গ
সব গুলো</w>
পাল ,</w>
এক দিকে</w>
''' ।</w>
লা হো
বন্দ রের</w>
তিক ।</w>
ফি চার</w>
য় ারে</w>
ফা য়ার</w>
বস ানো</w>
লিখ েন</w>
মি ঃ</w>
কু কুর
ঘ ড়ি</w>
সাক্ষ ী</w>
চর ্যা
ভি উ</w>
লিখ েছিলেন।</w>
14 ই</w>
টাই ম
ব েনি
মুক্তি প্রাপ্ত</w>
যাত্র ী
আ পাত</w>
তু র্ক</w>
বৃ ক্ষ</w>
ন্ন ত</w>
ব্যব ধান</w>
স্মৃ তির</w>
রয় েছেন।</w>
সন্ধ ানে</w>
ত দার
দেখ ানোর</w>
প্লে টো</w>
ব্য ারে
ভ্রম ণ
ভ্রম ণে</w>
নব গঠিত</w>
রেল পথে</w>
এল .</w>
ঈশ্ব রকে</w>
গ্রীষ্ ম</w>
ত্ব রণ</w>
কথা টি</w>
ইর ান
পার তেন।</w>
আর্ম েনীয়</w>
মা স।</w>
জন বসতি</w>
বড় ।</w>
তত্ত্ব বিদ</w>
আ ড়াই</w>
মধ্য যুগ</w>
বল কান</w>
সম্ মতি</w>
বিদ্যা য়</w>
অ্যাল গরি
2 3টি</w>
ন ং,</w>
অনুরো ধে</w>
হা জির</w>
সংগঠ ক</w>
প্রণ য়নের</w>
প্রতিষ্ঠান টি</w>
স্কট ল্যান্ডের</w>
রম না</w>
মি রপুর</w>
দত্ত ের</w>
আ বৃত্তি</w>
সংঘর্ ষে</w>
হ ্যালো
কৃ তিকভাবে</w>
নক্ষ ত্রের</w>
কাঁঠ াল,</w>
কাগ জের</w>
ধর্মাবলম্ব ী।</w>
বিএন পির</w>
ভিন্ন তা</w>
কম্পিউ টারে</w>
পূর্ব বঙ্গ</w>
আর্মেন িয়ার</w>
জিডি পির</w>
বা জানো</w>
পাতা সমূহ</w>
(198 5),</w>
হ্যারি সন</w>
যুক্ত ফ্রন্ট</w>
ম্যাল েরিয়া</w>
বা সায়</w>
সাক্ষ রতা</w>
ফিলি পাইন</w>
মল্ ল
জাদুঘ র,</w>
বাবা -
শরণার্থ ী</w>
কুর্ দি</w>
গাছ পালা</w>
হা ওয়াই</w>
স্ব নাম
অ্যা কাউন্ট</w>
পিয়ে রে</w>
পে টেন্ট</w>
বে দান্ত</w>
আই বিএম</w>
এক্সচে ঞ্জ</w>
ফিল্ম ফেয়ার</w>
শনি বার</w>
ধর্ম ঘট</w>
আনুগ ত্য</w>
ঘনিষ্ঠ ভাবে</w>
অ্যাডভেঞ্চ ার</w>
ড়াম ারা</w>
চমৎ কার</w>
ভার্ চুয়াল</w>
চেকো স্লোভা
সদৃ শ</w>
অ্যাকাডে মির</w>
অমিতা ভ</w>
যাত্রী বাহী</w>
স্বনাম ধন্য</w>
3 –
ন র</w>
8 .</w>
গ লা
জ তে</w>
এক ের</w>
- )</w>
এক ত্র</w>
ভা ঙ্গ
প্র দেশ
রে শ</w>
ট নে</w>
মে রে</w>
প্র রো
ী য়।</w>
ব ঞ্চ
শি ,</w>
বি এ</w>
প্র ভাষ
ডি ন</w>
ক্র য়ের</w>
স্ পু
পাদ ন</w>
বো মা
রাষ্ট্র ে</w>
লে বার</w>
ভূ ক্ত</w>
গঠ ন,</w>
জেলা ;</w>
; বাংলাদেশের</w>
িয়া ক</w>
কাল িয়া
িয়া -
কৃ ষ্ট</w>
অ সী
হু ই
সে দিন</w>
না চ</w>
খ্রি স্ট</w>
বি ধ</w>
সু দান</w>
ডি ফে
প্রাচ ুর
মা পের</w>
ভে বে</w>
প্রতিষ্ঠ িত।</w>
ফুট বলে</w>
ভ িয়ান</w>
আস িয়ান</w>
এ ধরনের</w>
10 নং</w>
রা ধা
দি নটি</w>
রোধ ের</w>
অব তর
প্রতি হত</w>
ঈ দুল</w>
স্টি ভ</w>
কমি শন
হার ানো</w>
বাদ ীরা</w>
রূপ সা</w>
ও হাই
হাই স্কুল</w>
অপ রাজ
শিরো নামের</w>
যাত্র ায়</w>
বাঁ ধ
13 শ</w>
মু ক্ত
ও জনের</w>
ময় ূ
কূ ল</w>
আয়ো জনের</w>
শাস্ ত্রে</w>
ধ্বং সের</w>
প্রি ন্
রাম পাল</w>
সাঁ তার</w>
চার্ চের</w>
184 9</w>
প্রাচী রের</w>
চা চা</w>
প্যা সি
বেগ মের</w>
দু ধের</w>
পার বেন</w>
নৃ শং
2 2টি</w>
সরবরা হের</w>
বর্ষ পঞ্জ
মি টার
মাহ ফু
রি পাবলিক</w>
ডল ফ</w>
ওয়েল স</w>
30 শে</w>
সং যোগের</w>
বিধান সভার</w>
হ লিউ
মদ ন
ঘণ্ টার</w>
জাহাঙ্গ ী
বসু ।</w>
নাথ ু</w>
এই ডস</w>
শঙ্ কু
রেকর্ ডিং</w>
আন্তঃ নগর</w>
সং কোচ
''' –0</w>
প ্যালে
কি তাব</w>
স্টে শন,</w>
কলম্ বিয়ার</w>
বি বর্তিত</w>
ক্রিয়া কলা
দরি দ্র
প্রতিনিধি ত্ব
ময় দানে</w>
অরবি ট
রাইবো সোম
স্বায়ত্ত শাসন</w>
তুষ ার</w>
ক্যান্ সারে</w>
মারা ঠি</w>
হত্যাকা ণ্ড</w>
নেদারল্যান্ড স</w>
দ্র ব্যের</w>
ম্যানেজ মেন্ট</w>
অ্যাঞ্জেল ে
সক্রিয় ভাবে</w>
বিল্ ডিং</w>
স্বৈ রা
নির্বাস িত</w>
ো নিও</w>
গ্রো ভ</w>
ডিভি শন</w>
মাহবু ব</w>
ম্ম ু</w>
ফিলিপাই নের</w>
মাউ ন্ট
ক্রিপ্ টন</w>
স্ নান</w>
আক্ কেল
গতি ধারা,</w>
কা শেম</w>
আধা -
রাফা য়েলের</w>
উৎপত্ তি।</w>
ভান্ত েস</w>
বঙ্কিম চন্দ্র</w>
হাছ ন</w>
যুদ্ধা পরা
আব্বাস ীয়</w>
;!--বাএপ্রব ভাব্যা--</w>
নদী কোষ'',</w>
চি রায়ত</w>
জ ম্মু</w>
শ য়
আ ন</w>
' ,</w>
াল কে</w>
ল ং</w>
বে )</w>
স্ তি</w>
ভ ো</w>
জা ভা
নিয় ন</w>
18 ,</w>
দু ন</w>
প জি
মার্ গ
ট রা</w>
ডি .
মার্ ক
কে ডি
থা গো
পি তে</w>
পি ,</w>
সদ রের</w>
চল ক</w>
প্রধ ানের</w>
বু খ
7 তম</w>
চা ,</w>
চা ণ
মি মি</w>
ি নো</w>
সব থেকে</w>
ক মিক</w>
রো য়া</w>
আয় ু
সম ানী</w>
17 )</w>
হো স্ট
রা বাদ</w>
ী কৃত</w>
আলো ,</w>
বৃহ স্প
18 20</w>
সে ক্ষেত্রে</w>
দর্শ ী</w>
দূ তা
ফ্রা ঙ্
ভা জা</w>
স বাই
16 )</w>
আপ ন</w>
10 %</w>
তার ও</w>
গঠ িত
পা তা,</w>
বিশ্ব নাথ</w>
যে সকল</w>
18 12</w>
নেতৃ স্থানীয়</w>
সর্বোচ্চ ।</w>
কা ণ্ড</w>
তৃ তীয়
অ্যাল ো
সূর ী</w>
বা ক্য
কন ্যার</w>
অর্ জুন</w>
অন ানু
সর্বা ধি
'' আমার</w>
ছাত্র -
গিয় েছিলেন</w>
এক জন।</w>
কর্মকর্ তা।</w>
ড েনীয়</w>
পথ ,</w>
(মৃ. 202
সংস্ করণের</w>
গভর্ন মেন্ট</w>
য় ার্ড</w>
তত্ত্ব টি</w>
সমা বর্তন</w>
যায় ;</w>
গঙ্গ া
হ তেই</w>
করা ই</w>
সঞ্চ িত</w>
দাম ্প
ভিয়েত নামে</w>
ভ্যা টিক
বর্গ কিলোমিটার।</w>
মে ডিসি
উদ্ব ুদ্ধ</w>
পণ্ডি ত।</w>
স্ফ টিক</w>
তিব্ব তি</w>
সেকে ন্ডের</w>
কিমি ।</w>
সূচ ী</w>
ফলা ফলের</w>
কে রান
ডান পন্থী</w>
আদি বাসীদের</w>
ঝুঁ কি
নির্ মল</w>
অবস্থান রত</w>
মার্ কস
অনুচ্ছ ে
জ ংশন</w>
সলি ম
বোঝ ায়,</w>
গঞ্ জ।</w>
যাব ৎ</w>
সমৃদ্ধ ি</w>
এজে ন্ট</w>
ক্রমা ন্
ম্যানেজ ার।</w>
সান্ তা</w>
স্তম্ভ ের</w>
রীতি নীতি</w>
স্বার্ থ</w>
পাণ্ডুলি পি</w>
অর্থ োড
গোল দাতা</w>
লক্ষ্ মণ</w>
পরিশো ধ</w>
কর্ম সংস্থান</w>
পার্লাম েন্ট</w>
উল্লা পাড়া</w>
উত্তে জনা</w>
ঘূর্ণ ন</w>
ইন্দো- ইউরোপীয়</w>
সং কীর্ণ</w>
পলাশ ীর</w>
ক চুর</w>
উদযা পিত</w>
অভয়ার ণ্য</w>
কু মার,</w>
প্রমা ণের</w>
যুগো স্লাভ
স্টি ফেন</w>
রে ফারেন্স</w>
ত থাক
জয় নুল</w>
সুষ ম</w>
অবসর প্রাপ্ত</w>
আল- বেরু
ভ্লা দি
;বাং -
; মেয়ার্স</w>
শাস নভার</w>
দুর্ ভিক্ষ</w>
ক্রমান্ বয়ে</w>
তথাক থিত</w>
;বাং- গে-
;বাং-গে- অতি</w>
ত প
গ ন
ঘ ৃ
খ ী</w>
রা ঙ
'' ;</w>
ত্ তে</w>
ম কে</w>
িয় ট</w>
ুল ি</w>
অন ার</w>
্ব ার</w>
স নি</w>
ঙ্গ ু</w>
ই কো
মধ্য ে
রে মি
18 টি</w>
জি ।</w>
; '</w>
চ রা</w>
ক্ষ ভাবে</w>
গো রি
ই কু
হা জী
ক্ সে</w>
সদ ্য</w>
চাল া
মে ইস
বু কের</w>
অ্যা ঙ্গ
ঘট িয়ে</w>
অ ভ</w>
আল ীর</w>
খা দি
শী ত</w>
মো টা</w>
পরি বাহ
অর্থ ,</w>
ব্র ী
বৃ দ্ধ</w>
এম .
হল েন।</w>
পূর্ ণি
সার ণি
অনুযা য়
পর্ ষ
রক্ষ া
ভে শন</w>
পৌ ষ</w>
বল বিজ্ঞান</w>
ন ালী</w>
আলো কে</w>
বর্ণ নার</w>
জে গে</w>
গুরুত্ব ের</w>
হল ঃ</w>
যে খান</w>
বাল া
বিশে ষে</w>
ফে স্টি
বার ক</w>
আক্রম ণ
192 2)</w>
গভ ী
মেল ার</w>
দো ষ</w>
গ্র িন</w>
প্রচ ন্ড</w>
প্রযুক্ তি,</w>
সহ ানু
পরি বাহী</w>
জর্ জ
ভাষা বিজ্ঞানের</w>
(197 3)</w>
মৃত্যু ।</w>
উপ দ্বীপ</w>
ভাল ্
সংবিধ ানে</w>
(199 4)</w>
ব লেও</w>
মা তাম
বি বাহিত</w>
পোল ীয়</w>
ঘট াতে</w>
উপ সাগরের</w>
প্রজাতন্ত্র ে</w>
ছোট দের</w>
থিও রি</w>
নি ন্দা</w>
বিদ্যু তের</w>
যা ওয়ায়</w>
ব্রাজিল ে</w>
বি ক্রে
ছা ড়া,</w>
ব স্ত্র</w>
সি রাজ</w>
টার্ মি
টার্ সের</w>
কা স্ত্র
হ কিং</w>
নাম করণ
বছর গুলিতে</w>
উত্তর প্রদেশের</w>
জিত েছিলেন।</w>
ভাস্কর ্য
ও সমান
ফাঁ সি</w>
অতী তের</w>
কালী গঞ্জ,</w>
বিমানবন্দ রের</w>
মাধ্য মে,</w>
ব্যবস্থা ।</w>
উৎপাদ নকারী</w>
ল্ ডস</w>
কলম্ বাস</w>
ধান '',</w>
কিমি )</w>
আফ্র িকা,</w>
কাঁঠ ালের</w>
সংযো জিত</w>
গুপ্ তের</w>
চিল ি</w>
উপলব্ ধ</w>
সুইজার ল্যান্ডের</w>
মহা কাব্যের</w>
শ্যাম ল</w>
গভীর তা</w>
অঙ্গ রাজ্য।</w>
শিল্প কলার</w>
এ স্তো
আলবেন িয়ার</w>
আজি জুল</w>
লিথ িয়াম</w>
ইঞ্চ ি)</w>
সেলি না</w>
থিও ডোর</w>
নিরী ক্ষা</w>
কেল ভিন</w>
পাঁচ বিবি</w>
অপ সারণের</w>
জুনিয় র্
ডেল ফ
আয় তনে</w>
22 শে</w>
গিল মোর</w>
শিয় ারা</w>
গ্যাং টক</w>
ভ্যাল ি</w>
গ্রাহ ্য</w>
সফটওয়্য ারের</w>
দাশ গুপ্ত</w>
ক্রুসে ডার
সহিংস তা</w>
ছত্রা ক</w>
রাজ্ জাক</w>
চিং ড়ি</w>
রোনাল দোর</w>
ধ্বংস প্রবণ
কাবা ডি</w>
বস তিপূর্ণ</w>
বুয় েন
জলদ স্যু
চতুর্থা ংশ</w>
াইজে শন</w>
একচে টিয়া</w>
হিলবের্ টের</w>
সং কুচিত</w>
নাতিশীতোষ্ ণ</w>
( যুক্তরাজ্য)</w>
বহিরা গত</w>
নিম্নো ক্ত</w>
সার্ টিফ
ইকু য়েড
ই জ
ল ভ
ঠ ো
এ .
অ র</w>
শ ।</w>
খ ,</w>
স্ র</w>
ই .</w>
পা উ
ক্ষ ে</w>
ন েল
ার দের</w>
হা দ</w>
না -
টি ;</w>
ক ঙ্
উপ </w>
ট নি</w>
ন্দ র</w>
ষ্ট িক</w>
স্ ক্র
শা প
মে দ</w>
রে ড
মি ছিল
লেখ েন।</w>
ছা প</w>
বল য়</w>
গা হ</w>
পে ট</w>
যে ত</w>
হা ওয়া</w>
রা বার</w>
সর্ ব</w>
পি সি</w>
হয়েছিল েন,</w>
সার ী</w>
আয় নিক</w>
বাস ।</w>
ড ্র</w>
ডে কে</w>
প্রকাশ ।</w>
বর খা
বিধ ায়</w>
দা ক্ষি
গবেষ করা</w>
ফো নের</w>
জান ান,</w>
ফল ,</w>
কম তে</w>
পাঠ কের</w>
ক্ষি প্ত
স্টে শন
হার িক
জার্মান রা</w>
পরীক্ষ ণ</w>
বিভ ক্তি</w>
নিয়ন্ত্র ক</w>
1 30</w>
সাহায ্য
মেল ে</w>
( 4)</w>
193 4)</w>
জার্মান ি,</w>
অর্থনী তি,</w>
সমর্থ নে</w>
আল ম,</w>
প্রযো জ্য
রোগ ী</w>
(198 2)</w>
কার ণ।</w>
লি গার</w>
ম্যা চের</w>
(196 6)</w>
নব ীন</w>
184 6</w>
বান ু</w>
পি তাম
জান ুয়ারি
ভে ড়ার</w>
গ্রন্থ ।</w>
পা চ্ছে।</w>
েছিল ো।</w>
কথা ,</w>
থাক তেন।</w>
প্রথম টি</w>
জনগণ কে</w>
শু মারি</w>
প্রশ্ ন
নির্দেশ িত</w>
ফ্যা সি
1 1,</w>
নে রও</w>
কক্ষ পথের</w>
পের িয়ে</w>
রহ মান।</w>
গ্যাল ারি</w>
বাতা সে</w>
প্রক্রিয়া টি</w>
পৌঁছ ানোর</w>
শাম সুর</w>
অ স্পষ্ট</w>
পৃথিবী কে</w>
নয় )</w>
সিনে মায়</w>
বা জিত
নির্ণ য়ের</w>
অর্থনী তিকে</w>
বহু দলীয়</w>
সো হ্</w>
পূর্বা ঞ্চলের</w>
23 শে</w>
নৈ তিকভাবে</w>
ম্য ারি</w>
অ মর্
সেক্টর- 2</w>
ডেন মার্ক</w>
জিনি স
গণিত বিদদের</w>
আনন্দ বাজার</w>
আয়া তে</w>
পরিবার কে</w>
ইউরোপ ীয়দের</w>
ব চন</w>
দৌল ত
নাইজে রিয়ার</w>
আয় রন</w>
বরে ন্দ্র</w>
নির্যা তনের</w>
রচয় ি
সং মিশ্রণ</w>
দে ওয়া।</w>
উত্তরাখ ণ্ডের</w>
হারা য়।</w>
বৃ ষ্টির</w>
নিদর্শ ন।</w>
সতর্ কতা</w>
সিপা হী</w>
পদ োন্ন
সন্তো ষ</w>
স্বৈ র
খিলাফ ত</w>
পা গলা</w>
টাঙ্গাই লের</w>
বচ্চ ন</w>
গম্ভ ীরা</w>
ন্য স্ত।</w>
বালিয়া ডাঙ্গ
তেজস্ক্রিয় তা</w>
পা শেই</w>
ভিন সেন্ট</w>
সচেত নতা</w>
ভাইসর য়</w>
আন্তর্জা তিকভাবে</w>
ধারাবাহিক তায়</w>
হাকিম পুর</w>
স্টুয় ার্ট</w>
অপে রা</w>
ধলে শ্বরী</w>
ঐশ্ব রিক</w>
আখাউ ড়া</w>
আতা তুর্ক</w>
প্রভাষ ক</w>
প্যাসি ফিক</w>
দাক্ষি ণা
অমর্ ত্য</w>
ঈ দ
প ঠ
ই ঁ
াল ার</w>
নি ম
ভি .</w>
শ নি</w>
ম েন</w>
য দি
অব স
রে জ</w>
বা সর
প িল</w>
ত্য ে</w>
দ ্রি
সম য়।</w>
- 3</w>
ভাষ ্য</w>
রো মে</w>
নী য়।</w>
অন্য ত্র</w>
তি য়া
গ রু
যা য়ী</w>
শিল াই
আই সি
ন্ট ন</w>
ড়া ।</w>
সী দের</w>
সু ফি
খ ন্ড</w>
ভ ের
ইউনিয় ন।</w>
তি য়া</w>
টি স্ট</w>
চার দিকে</w>
বার্ মা</w>
পরিচাল কের</w>
চ্ছ ন্ন</w>
17 ই</w>
জন ক।</w>
শিক্ষ ক।</w>
সহ )</w>
20 শে</w>
নাট ক,</w>
ভাষা বিদ</w>
জো ড়</w>
আন্দ ্রে
গ ার,</w>
বায় োল
সৈ ন
বয় সেই</w>
তার ত
গণ বাহিনী</w>
ছ ফা</w>
গ্ ধ
নে ত্রী</w>
ন্ বিত</w>
অন্তর্ বর্তী</w>
চর ্যার</w>
জে ফার
14 4</w>
অঙ্গ া
পত্র ,</w>
মেল ো</w>
ওয়ার্ ডের</w>
বিজ্ঞান কে</w>
ওঠ েন</w>
ামা টির</w>
রেখ েছিলেন</w>
1 ,000</w>
নী তি,</w>
193 3)</w>
পরিকল্প নায়</w>
অফি সের</w>
ক ন্ন
ময় নাম
সিলে টি</w>
অ জিত</w>
অধ্যাপ না</w>
সংস্কৃ তি
পাবল িকে
জ ঙ্গল</w>
(199 5)</w>
তাম া</w>
তাম ্র
ছাত্র ীদের</w>
অধ্য ু
ঙ্ক ন</w>
লি গা</w>
উদ্য োগ
ওয়ার্ ড,</w>
হ্রা সের</w>
183 9</w>
রেল স্টেশন</w>
কমা তে</w>
নিজে দেরকে</w>
রাজা ,</w>
ট্র ফি</w>
অপারে টর</w>
মানব জাতির</w>
; (জন্ম</w>
আবাস ন</w>
চিকিৎস ক,</w>
আদমশু মারী</w>
দ্বীপপু ঞ্জ
মাছ ।</w>
মজু দ</w>
চ্যাম্পিয় ন্স</w>
200 6,</w>
চিঠ ি
অনুশীল নের</w>
ছি ন্ন</w>
গণ হত্যা
রক্ত ক্ষ
নিকট তম</w>
থেকে )</w>
অল ং
সমস্যা য়</w>
ডি ভাইস</w>
ভার্ম ন্টে</w>
-আ প</w>
মহি উদ্দিন</w>
রাজ তন্ত্রের</w>
মধ্যপ্রাচ ্য</w>
লক্ষ ীপুর</w>
পশ্চিমা ঞ্চলের</w>
বিকি রণের</w>
ওডিসি উস</w>
গোলার্ ধের</w>
বিপ জ্
সংশোধ িত</w>
অণু জীবের</w>
রৌ মারী</w>
রৌ প
2 –1</w>
পাল্ টা</w>
কি ন্তু,</w>
ফ্র িকো
ব্যান্ড টি</w>
মরক্ কো</w>
সেন্টি মিটার</w>
গালি ব</w>
দিয়ে গো</w>
র্ষ ি</w>
দাঁ ড়ায়।</w>
বাস্তবায় িত</w>
চর ফ্যাশন</w>
ঘোষণা ।</w>
ব্র্যা ক</w>
উত্তরাধিক ারী</w>
অয় লারের</w>
সন্ত্রা স
পরগণ ার</w>
ভিত্তি প্রস্তর</w>
ভারত বর্ষে</w>
উপজাতি দের</w>
ভূঁ ইয়া</w>
ঝিল্ লি</w>
প্রসঙ্গ </w>
মুনা ফা</w>
গির্ জার</w>
ও স্তাদ</w>
ভাণ্ড ার</w>
ওড় িয়া</w>
নাসির নগর</w>
কাকা বাবু</w>
শৈলকু পা</w>
ব্যস্ত তম</w>
উদ্যান ,</w>
স্টে শন।</w>
ফ্ল য়েডের</w>
ক্ষুদি রাম</w>
রোমা ন্টিক</w>
এ ম্পায়ার</w>
ব্যোমকে শ</w>
লেখ াপড়া</w>
উপাসনাল য়</w>
ভূ গর্ভস্থ</w>
সবাই কে</w>
অর্থোড ক্স</w>
ফ্রিকো য়ে
শ -
ক তি
ন ল</w>
ক ং</w>
বা ক</w>
ল িত</w>
িক )</w>
খ )</w>
ার স</w>
সা ব</w>
20 ,</w>
ব্য ,</w>
জ ''</w>
ভ ঙ্গ
অনু পা
বিশ্ব কে</w>
ছা য়
শি রা</w>
ড কু
মে য়ের</w>
পি পি
পা ড়</w>
ট নিক</w>
ত নিক</w>
বো স</w>
( মার্কিন</w>
ফ োর</w>
ত ন,</w>
বু কে</w>
5 তম</w>
জি মি</w>
বৈ ধ
আ খ</w>
ম হু
আ বাহ
ট্র ু
দ্র ু
দ্র ব
ডে ড</w>
ব ালি</w>
বস তির</w>
বস া</w>
পা ণি
নির্বা হ</w>
আর্ সেন
প্র দক্ষিণ</w>
হো স্ট</w>
সাল েই</w>
হয়েছ ে
বর্ণ না
আ চার</w>
শ্র মের</w>
1 10</w>
উচ্চ শিক্ষা</w>
ব্যক্তি ।</w>
ক্রিকে টের</w>
নি জাম
গল্প ে</w>
কাম রূপ</w>
পাঠ কদের</w>
সাহায ্যের</w>
এস েছিলেন</w>
বই ,</w>
রাশ িয়ায়</w>
সিলে ট,</w>
বিক্র িয়ায়</w>
পরিষ দ,</w>
200 8)</w>
(198 1)</w>
বাব ুর</w>
;!-- ফারসী
নব ্ব
184 4</w>
184 7</w>
(199 7)</w>
আব্ বাস</w>
মুক্তিযোদ্ধ া,</w>
গৌ রী
গ্রীষ্ মে</w>
কোম্পান িতে</w>
দিল্ লী</w>
মূর্ তি,</w>
(200 4)</w>
183 5</w>
; কিমি</w>
সিরাজ উদ্
কক্ষ ীয়</w>
বর্ণ মালা</w>
কু কুর</w>
ে শ্বর</w>
চট্টোপাধ্যা য়ের</w>
'' পথের</w>
ব্যবসা -
সংস্থা টি</w>
কা ন্তি</w>
লক্ষ্ মী</w>
সাহিত্য কর্ম</w>
ভিয়েত নাম
ব্যাকট ের
সচি বাল
নন্দ ন</w>
উৎসব ।</w>
ত্রা ণ</w>
ব্যক্তি গতভাবে</w>
বিমানবন্দ র,</w>
8 0%</w>
হলো ।</w>
পুঁ থি</w>
ব্রা উন</w>
আগু নে</w>
কি ন্ডার
পঞ্চা শ</w>
17 65</w>
বাঘ </w>
শাখা ।</w>
থাই ল্যান্ডের</w>
দিবস ,</w>
ফ্লো রে
চরিত্র ।</w>
হান েস</w>
ক্যামেরু নের</w>
পূর্ব বঙ্গের</w>
দুর্গা পুর</w>
কবিতা টি</w>
অটো মান</w>
বুর্ গ</w>
হত্যাকা ণ্ডের</w>
সিঙ্গা পুর</w>
বি বর্তনের</w>
আড় িয়াল</w>
মি রাল</w>
জটিল তা</w>
অগ্নি যুগের</w>
ফতে হ</w>
বিষ্ণু পুর</w>
পাঠ্য পুস্তক</w>
লায় লা</w>
নিশ্চ য়তা</w>
বি ন্যস্ত</w>
লিউব্ল িয়ানা</w>
সিঁ ড়ি</w>
বোয়াল খালী</w>
মেরু দণ্ড
ফ্রাঙ্ক লিন</w>
স্কাউ ট</w>
পররাষ্ট্র মন্ত্রী</w>
বাই নারি</w>
গ্রামা ঞ্চলে</w>
হাস্য রসা
ছাত্রা বাস</w>
ব্যাটসম ্যান</w>
প্রতিশো ধ</w>
কার্ টুন</w>
চ্যান্স েলর</w>
ফ্রেড েরিক</w>
জাহান ারা</w>
পা ক্ষিক</w>
অ বিলম্বে</w>
দস্ত য়েভ্</w>
অ্যাম িনো</w>
ঘ রোয়া</w>
নাম ্বার</w>
অ্যাল গোরি
ফিলা ডেলফ
সার্টিফ িকেট</w>
কতি প
;!--ফারসী ম</w>
সিরাজউদ্ দৌ
হাস্যরসা ত্মক</w>
কতিপ য়</w>
ক দ
জ হ
আ .
ছ য়
গ ।</w>
6 ই</w>
8 ই</w>
ড ীয়</w>
ছ েন।</w>
ঙ্ ঘ
ব্য ে</w>
বিশ ার
মি তে</w>
প্র মি
এ লে</w>
ক মে
মে থ
রাজ ী</w>
বি রাজ
ভার ,</w>
র থ</w>
সাম ন্ত</w>
য ানের</w>
কাল েম
শহ রা
মো ড়</w>
ঠ নিক</w>
গা ছে</w>
দু বার</w>
জু য়
ক্র াই
স্ট ারের</w>
ঋ ণের</w>
উচ্চ তম</w>
শতা ব্
আল ্প
রাষ্ট্র প্রধান</w>
তী রের</w>
সব ের</w>
সব কিছু</w>
আ ইসল
ন য়া</w>
োল ি</w>
সে চ</w>
ফে র্
ম্যা থ
এক ক,</w>
1 17
রাখ ে,</w>
সহ ্য</w>
আ বর
উপজেলা টি</w>
নিক ,</w>
নিক ভাবে</w>
পক্ষ ে,</w>
আ স্থা</w>
হিসা বে।</w>
শা য়ার</w>
দী প</w>
দী নে
তো লে</w>
( বীর</w>
আল ফা
আন ে।</w>
হ ওয়া
ওয়া টার</w>
ঘা টে</w>
নাট কটি</w>
বাই ট</w>
বাই রে
16 00</w>
মাদ ক</w>
লি ঃ</w>
ং কর</w>
তার ু
প্র ভূত</w>
সে টিকে</w>
আফ্র িকা
আই পি</w>
ব ডি</w>
হার মো
14 ,</w>
সূর ্যা
ওঠ ার</w>
ভূমি রূপ</w>
ছবি ।</w>
প্রাণ ী।</w>
185 1</w>
পেয় েছেন</w>
আগ ামী</w>
শান্ তির</w>
ছ েলের</w>
পদ্ধ তি।</w>
198 7)</w>
জন পদ</w>
সত্য ের</w>
জাতিসংঘ ে</w>
(198 3)</w>
(198 7)</w>
টু ল</w>
কার্য ক্রমে</w>
ট্র েনে</w>
মুক্তিযোদ্ধ ারা</w>
জৈ ন
বান িয়া
এক বিংশ</w>
(200 5)</w>
বিবি র</w>
183 2</w>
তি মূলক</w>
পাথ র
সে হেতু</w>
ইঞ্জি নের</w>
অভি জ্ঞ</w>
লো হা</w>
ধারণা ,</w>
কে রও</w>
এ আই</w>
বি রাজ</w>
নিউক্ল ীয়</w>
করু ন,</w>
হাট বাজার</w>
ভাষা বিজ্ঞানী।</w>
ট্যা ক্স</w>
ট্যা গ</w>
নৃত্য শিল্পী</w>
চিত্র কর্ম</w>
মি টারের</w>
ভ লিউ
বু দ্দিন</w>
সহ কর্মী</w>
বিশ্ব কোষের</w>
নয় ;</w>
শ্রেণি বিভাগ</w>
স্টা ফ</w>
ণ ামূলক</w>
শৈল ীতে</w>
খ্রিষ্ট ীয়</w>
ইউনাই টে
197 1-এ</w>
আবিষ্ কারক</w>
সং যুক্ত।</w>
কায় রো
দা বির</w>
দক্ষিণা ঞ্চলের</w>
পরিবহ ণ</w>
সারণ ির</w>
ওয়াশিং টন,</w>
'' হ্যারি</w>
অধী নে,</w>
স্বে চ্ছ
শতাব্দ ীতে,</w>
মদি নার</w>
ন শীলতা</w>
4 ঠা</w>
জঙ্গ লে</w>
ভুট্ টো</w>
মৈ ত্রী</w>
রা হুল</w>
হাই কোর্টের</w>
সম্পর্ক যুক্ত</w>
ইউক্র েনীয়</w>
আপেক্ষ িকতার</w>
19 18)</w>
ভি তরের</w>
সীমাবদ্ধ তা</w>
ফে রেশ
ফরিদ গঞ্জ</w>
পৌঁছা য়।</w>
বে ঞ্জাম
তারা শঙ্কর</w>
আগ্নেয়গি রির</w>
আয়োডি ন</w>
বেকার ত্ব</w>
ক্যাম্পা সে</w>
সবার্ গ</w>
সর্ব কনিষ্ঠ</w>
বিভিন্ন ভাবে</w>
তুষার পাত</w>
টেক সই</w>
চে হারা</w>
ঘোড়া ঘাট</w>
স্মৃতিক থাকার</w>
ঊর্ ধ্ব
ফিলিস্ তিন</w>
বর্ষা কালে</w>
মণ ি</w>
অ্যাল ুমি
চাকর ির</w>
ক্রীত দাস</w>
এরি স্ট
ফরে স্ট</w>
দুর্ লভ</w>
আশঙ্ কা</w>
প্রথমার্ ধে</w>
মহাকর্ ষ</w>
হ্যার ল্ড</w>
কে উই</w>
হর মোন</w>
ব্যারি স্টার</w>
পর িকা
এডুকে শন</w>
প্রবী ণ</w>
গলা চি
ততো ধিক</w>
মার্গ ারেট</w>
বেঞ্জাম িন</w>
পরিকা ঠাম
1 –
ক ;</w>
ত্ </w>
স ত্
চ ং</w>
ী ম</w>
হয় নি
ই নি
কা ই</w>
রা ত্র
সে ক
ভি ং</w>
) (</w>
নে স</w>
ে ড</w>
ঢ াল</w>
জ ীর</w>
ও লা</w>
চ ারা</w>
ইউ ন
রা য়।</w>
্য াম</w>
জে দ</w>
বি জে
শি র
ড িক্
গো র্
ড ানের</w>
জি পি
রাজ পু
াম ন্ত্র
না য়া
য়া তের</w>
কৃ তির</w>
স িকে</w>
পে জ</w>
এক কের</w>
জ ারের</w>
ন্ট া
আস ছে</w>
খা ড়া</w>
ভি টা</w>
দ্বি তী
''' 2
ঘো ষের</w>
এক ক।</w>
হো সে</w>
( প্রতি</w>
ম্ব ের</w>
গবেষ ক।</w>
সর দার</w>
বহ র</w>
স্ক ট</w>
আন েন।</w>
বি এস
শ ন্স</w>
্যাম ি</w>
এ স্তা
যেম নটি</w>
ভো লা
আ দেশে</w>
ফেল েন।</w>
ুলি পি</w>
দা শের</w>
স্টি ং</w>
এ টিতে</w>
ফার েন
ক্লা বে</w>
সৌ দ</w>
191 2)</w>
অঞ্চল ে।</w>
ধ ন্য
ল েনি
অ্যাল েন</w>
নিয় েছিলেন</w>
12 ই</w>
ভৌ গোল
193 6)</w>
হ ্যাম্প
দ্বীপ ।</w>
রাজ্য গুলির</w>
সার্ ভার</w>
কাউন্ টির</w>
মাম ু
(199 0)</w>
বলি উ
জ্যোতির্ বিজ্ঞানের</w>
প্যা কে
দর জা</w>
( খ্রিস্টপূর্ব</w>
এড গার</w>
রাষ্ট্রপ তি
রঙ ে</w>
সি রিয়া</w>
বে ষ্টি
দিন ই</w>
র বিন</w>
ই ডেন</w>
দর বারে</w>
বিজ য়ী,</w>
হ্যা ট
কু চি</w>
ফ াল্
178 7</w>
18 09</w>
জা কির</w>
সা দৃশ্য</w>
পূ রক</w>
সংগঠ ন
লি ংক</w>
হাউ সে</w>
অপর কে</w>
1 %)</w>
বায়ুমণ্ড লে</w>
স্পে শাল</w>
ডান দিকে</w>
চিকিৎসা য়</w>
সিকি উ
ম্য ারা
মালয়ে শ
একই ভাবে,</w>
অত্যা চার</w>
শ্বে ত</w>
শু ক্র</w>
আলজে রিয়া</w>
আ ন্টি
মিউনি খ</w>
বা ড়াতে</w>
বাঙালি রা</w>
ন্যা টোর</w>
পদ্ম ভূষণ</w>
বাচ্চ া</w>
ভুট্ টা</w>
উদ্ দিন,</w>
সমাধি স্থ</w>
রাজশাহ ীর</w>
সায়েন্ সেস</w>
প্র বর্তনের</w>
লোগ ো</w>
আই জাক</w>
ত্রি মাত্রিক</w>
প্রাসা দের</w>
অন্ বেষ
অ সম</w>
মি শেল</w>
ব্য ঞ্জন
পা উন্ড</w>
রও না</w>
সংস্কার ক।</w>
মৌ র্য</w>
গো ড়া
আর্কিমিডি স</w>
অনিয় মিত</w>
শরীয় তপুর</w>
সাম্রা জ্যে</w>
জিন গত</w>
মস্তিষ্ কের</w>
বি ভূতি
ঘন্ট া</w>
এভারে স্ট</w>
ক্যালকুলে টর</w>
সেক্রে টারি</w>
ফজল ুর</w>
চিত্ত রঞ্জন</w>
দুই- তৃতীয়াংশ</w>
সাংখ ্যিক</w>
অ সি
ম্যান গ্রোভ</w>
কেডি ই</w>
গ্র ্যামি</w>
শাপ লা</w>
এস্তা দিও</w>
অসি তকুমার</w>
8 0
হ '
ঢ ি
প টি</w>
পর ী
প কে</w>
পর া</w>
ড কে</w>
ম ে।</w>
খ ড়
প ট</w>
ক্ষ ণ
দে বে
সে তার</w>
কা ঙ্
গ্র ো</w>
বিশ দ</w>
কো ভি
সি উ
চি ল</w>
ভার া</w>
পুর ।</w>
দা দা
অন ন্ত</w>
বি লো
ব্যবহ ৃ
যুদ্ধ ।</w>
খ াই
স্ট াই
ন্ড ারের</w>
শিল্প ।</w>
8 তম</w>
খা তু
আল ব
মত ী</w>
খ োল
ের ।</w>
তাল িকার</w>
বিষয় গুলি</w>
ট্র ি</w>
শিক্ষ ক,</w>
পরি হার</w>
হো ট
ভে রা</w>
কা ছে।</w>
ত ার।</w>
যোগ ্য।</w>
আন্দোল ন
বিশ্ব স্ত</w>
পরিচি ত
শাহ ,</w>
োমি টার</w>
উইকি তে</w>
জেন ন</w>
নাই ।</w>
সফ রের</w>
অভ ্যা
কাম া
কাম ার
তে ঁ
ক্লা সের</w>
জীব বিজ্ঞানী</w>
পত্র -
দীর্ঘ কাল</w>
না গে
পূর্ ণ,</w>
কান ুন</w>
প্রতি শব্দ</w>
হিন্দ ি,</w>
ক্ত তা</w>
12 5</w>
হাই ওয়ে</w>
সমর্থ িত</w>
অ ঙ্ক</w>
নৃ বিজ্ঞান</w>
জ উদ্দিন</w>
নিউ ম্যান</w>
শক্তি তে</w>
শক্তি ,</w>
বল েছেন।</w>
(197 7)</w>
হার্ ডি
প্রত্যা শা</w>
ভাল ভাবে</w>
অ ন্তর</w>
(196 2)</w>
(199 8)</w>
হিন্দু স্ত
জ্যোতির্ বৈজ্ঞানিক</w>
ও সমান</w>
ষা টের</w>
গৌ ড়ের</w>
(200 2)</w>
পোল ্যান্ড
কাম রুল</w>
সমূ হে</w>
18 29</w>
ট িক্স</w>
বুঝ ে</w>
আ মিন
183 4</w>
হিল ি</w>
3 2টি</w>
নির্দেশ িকা</w>
নি বেদন</w>
ল খন
পুরো হি
গুর ুর</w>
জো হান</w>
গ্রীষ্ম কাল</w>
ক্রে ন</w>
জু য়ান</w>
মেয়া দের</w>
179 0</w>
আক স্
মুখোপাধ্যা য়ের</w>
অপ সারিত</w>
সাগর ।</w>
সেক্ট রে</w>
ব ণিক</w>
প্রাপ ্য</w>
অর্থনীতি বিদ।</w>
কো রীয়</w>
পণ ্য,</w>
11 শ</w>
ব্যবসায় ী,</w>
র ঘু
ঘু ড়ি</w>
পদ শূন্য</w>
কৃ তভাবে</w>
এক প্রকার</w>
বিনো দ
বিজ্ঞ াপ
অন্ধ ্র
নিকো বর</w>
তিব্ব তের</w>
শৈ বাল</w>
খ্রিস্ট ানদের</w>
জলা ভূমি</w>
প্রয় োগে</w>
শৈশ বে</w>
আমের িকা,</w>
খ্রিস্টপূর্বা ব্দ</w>
উপনিবেশ ের</w>
দা ফন</w>
এ ড়াতে</w>
ব্যবস্থাপ ক</w>
সভাপ তিত্ব</w>
বোধ ক</w>
বাসিন্দ ারা</w>
16 66</w>
হিন্দ ুরা</w>
হন ৷</w>
বুদাপে স্টের</w>
বিলু প্তির</w>
তাই ওয়
কারখ ানা,</w>
দীর্ঘ মেয়াদী</w>
অবা ধ</w>
ইউনে স্কোর</w>
সাক্ষাৎ কার</w>
ন্টে ড</w>
পরো ক্ষ</w>
কুয়ে তের</w>
মুজিব নগর</w>
দুর্ ভিক্ষ
আর্কিমিডি সের</w>
পত্ নী</w>
তীব্র তা</w>
মৃত দেহ</w>
স্ট্যান ফোর্ড</w>
সমূ হ।</w>
ঋষ ি</w>
আ ভ্য
সংলা প</w>
উদ্যো ক্তা</w>
লেখালেখ ি</w>
মাল্ টি
স্মার্ ট</w>
হস্ত ক্ষেপের</w>
আলেক্ সা
এন জিও</w>
মিউনিসি প
মনু ষ
ব্যাখ ্যার</w>
দেখুন )।</w>
পিয়ান ো
প্রতিযোগ িতামূলক</w>
আম জাদ</w>
প্র চেষ্টা
লা হোর</w>
অসহ যোগ</w>
মুক্ তা
সত্য িকারের</w>
উমাই য়া</w>
ভে ড়ামারা</w>
পি থাগো
অধ্যু ষিত</w>
হ' ল</w>
আলব েনীয়</w>
মিউনিসিপ ্যাল</w>
ড -
এ থ
বি .
বা ধ
তি ম</w>
গ্র ্যা
ম জ</w>
ব নে
থা ই</w>
কে ন্দ
জ্ জ</w>
দে রা
পুর ু</w>
. --</w>
ই স্ত
্রা য়
জ ানে</w>
কা শি
মো ম</w>
পা তিক</w>
কু চ
উ গা
ন য়ের</w>
য়ে স</w>
পি ন</w>
নে য়া
হা ড়</w>
বো না
কর বার</w>
শুর ু
জ েন,</w>
এ সি</w>
6 তম</w>
ন্যা য
মু ম্
সু খ</w>
উপ জাতীয়</w>
বা কে
মের ুর</w>
কা পু
বাস ীর</w>
গু স্তা
মন্ত্র ীর</w>
প্রাচ ্য</w>
চিত্র ,</w>
ধু নিক</w>
সহ ,</w>
অনু করণ</w>
রক্ষ ী</w>
অ তুল
ত ার,</w>
আব ার,</w>
বাড় ানো</w>
ক্যা প
বা ক্যা
15 শ</w>
নির্ মূল</w>
মাই ক্র
ষ্টা ব্দে</w>
জল জ</w>
ব ক্স
অনু ধা
মহা ভারত</w>
18 18</w>
দার্ ন</w>
ঈ শা</w>
অক্টো বর
( গল্প
গল্প টি</w>
ডি এন
অঞ্চল টির</w>
নাল ের</w>
পৃষ্ঠ ার</w>
অব হিত</w>
যৌ গের</w>
দল ।</w>
কে মন</w>
ইউনি টের</w>
পদ্ধ তি,</w>
িয়াম ে</w>
অস্ ত্রের</w>
প্রয়ো জনের</w>
বিক্র ির</w>
খ্রিস্ট ধর্মের</w>
; আমার</w>
2 1টি</w>
শাস্ ত্রী</w>
(198 9)</w>
কাউন্ টিতে</w>
(199 6)</w>
পরিবেশ না</w>
জৈ ন্
পি এল
রূপা ন্তর
ফার্ মা
ভ েনে
ঘট েছিল</w>
জীবন কাল</w>
বাস ভবন</w>
ঢাকা -
পেশা গত</w>
পার্ব তী</w>
রাম গতি</w>
শর্ ত
ব্রাজিল িয়ান</w>
আকা ঙ্
বির িয়ান
কর লে,</w>
জল বিদ্যুৎ</w>
দ্বন্ দ্ব
ভবিষ্য ত</w>
অপেক্ষ ক</w>
নবা বের</w>
178 1</w>
তারা ।</w>
শান্তি পূর্ণ</w>
স্থিতি স্থাপ
ইসরায় েলে</w>
সমান ভাবে</w>
বিন্দ ু।</w>
শিক ড়</w>
স সীম</w>
সু বাদে</w>
রাজধান ীতে</w>
নিকো লাই</w>
দ ণ্ডের</w>
শাসন কালে</w>
নগ দ</w>
এ ন্ডার
ঘূর্ণিঝ ড়ের</w>
অভি বাসীদের</w>
দ্বৈ ত
দ্বিতীয় ার্
স পরিবারে</w>
ধ রেই</w>
সেনা বাহিনীকে</w>
200 9,</w>
নীতি মালার</w>
গুজ রাত</w>
বারা ক</w>
বি ভূষণ</w>
ক দম</w>
খ্রী স্টা
পূ রণের</w>
সনা ক্ত</w>
পু তুল</w>
ভৈ র
ওডিসি উসের</w>
চৈ ত
আ শির</w>
আগ্রা সনের</w>
পূর্বা ঞ্চলীয়</w>
ঢে কে</w>
ড ার্ক</w>
কাশ্ মীর</w>
নজর ুলের</w>
কালে ক্টর</w>
লৌ হ</w>
রাই ফেল</w>
ডায় মন্ড</w>
ওড়ি শার</w>
( 0.0
সন্ধ ্যায়</w>
গ্রা উন্ড</w>
ডো টাস</w>
এন জাই
ডায়া বে
বেক নের</w>
তের খা
অসুস্থ তার</w>
ডিউ ক</w>
ডি প্লো
লতি ফ</w>
কম্ পাই
নির্দেশা বলী</w>
পুনরুজ্ জীবিত</w>
পরমহ ংস</w>
ব্রিটান িকা</w>
পাইক গাছা</w>
মিসিসি পি</w>
দ্রষ্ট ব্য</w>
ত্রিপুরা ,</w>
তেলু গু</w>
সলিম ুল্লাহ</w>
উৎ কৃষ্ট</w>
নামকরণ কৃত</w>
বরখা স্ত</w>
পদোন্ন তি</w>
রৌপ ্য</w>
গা ঠনিক</w>
বাকে রগঞ্জ</w>
